
import base64
import io
import json

import numpy as np


WEIGHTS_B64 = "UEsDBBQAAAAIAAAAIQBnZr4TvVQAAIBbAAATABQAcG9saWN5LjAud2VpZ2h0Lm5weQEAEACAWwAAAAAAAL1UAAAAAAAAnJf3X8/f+8dLaahISSWRok0ordfzuiojUbKi0NRAqRB5y2gP7ZKGqCShKVLq9TxXRqhQiOw9ioTISMbH91/4np/OOT+dc27XeVz3+z7HFYuWrBIVCRXZqePjG+K9RcdSQ4fzM9Ex1NDxC96ydYtXkEfwFh/f/9u39doY4vtvP2S91ybff2tdUxNDDYsZeoYauzX+n2NEyj1FuJysSndrq4EtP8pW5Eui4pJ9NP/RXwjscGDqZktpqtET3sPxOjP0WIZR6/pYRXU9dExdS4/drzDTcqSgj59g7bgopta2Fa9kv2GWnv3sft8x+mVyHVs0VLk1Z5RoR/gi7ppZLUsyEMJbHWLSx4dZvcvI4+okRqP8kgo25VEkvs1XAI2Q+XR/lAlGhibgy7z/SLZxBS42MgHflwdwTtdhVI2oh0o5L2qqDKIqjSK+W9YfRkua4swbgTR1+0j42GGGM2t2MbeiC0IVPwmSGrMXai5OJvvq9sY6A2d+6/KFTK6qmnTD76E+l4jFVdI0SXwDd2GDO1ut5g45nX7smpMGNviuoNgpi2CPYim7kT2ZypKP8W6nA/HynCPsUJo9il3/1DjHLw6vjMml3xrNdKQkBtnfEFqbPZubUb2Dm3LwNEtwXMQi9x5m5p+vwpcR8ZBj3c4bkwkmm43kpGUKqbh4O57LcqKOqUeEx34X4IjvkVRatIL90BhLtS9EsP79Qnj3/in7bXQThlEwubxMgIjQY5BsE4fc2YOM+f8Htp4ykPPJVXhhrQHn7xOO14e95RapD6Ptzr/5yaoXmXvKbWhfYcuc4x0oZEcNNGqYwM1wdzhwcASmtNWyB1/6IPizMyciFUzC+YMUWlLIbE6M+neXVt46pZ8Xz9kPMm52nPvtMpa915XSA4s5nxfR9NQqH2d2dpPrNlfiV0+FzHBJXJRlhe9naOFj+3K2Nu4ct9tZmesNH2JGZVE0PsgMVz0YAs0v9wX3OhTQfeJuqg5ndPisF/O5cALHuqpTrFYlNvrqsSVhjmxhvydu+jKR9J7Fw46Tx7EGjqJZSAgL98ilbX16ODnxPVO4OwxbN8wjhr3gcKmKxd1IgOI7zXBAbjg2HjzGrswdDr9c2iBQopPV3xsN/7Uuwvvqq7nvpT9BwrmFOURkcw0Oing/ZgntdGjGezdieLWWH/y7M+4YMVcAasfes0MX/Wn1yEFoyAijWwNKlP7jEB10+gAja/7DpDA94vzc8c/vWXQ7YDEpmRShYybXcEqph4UHhOP5HkeuKNGdzd6vR9VpR6Ai9iJKx05Bi46D9GbNCnLURKy7nEjfpu2m3kFTwaITgVT7fK1QJGYYRZtZwzkbMVTbOw/hmwgOmygGQilL/PEukR7WnQbxfG1w/aYGDf4GiG/Tmd7yMuh0WgLXh46RYU0FHr+yCxPmTmJT+z2gYvmIpotPTKDk11XBVKkFzLliCi2JVsEf0fVg359N23wSaPhDb6wyRW756CTYnHAIm/P20nTVGprr1YDbwleimGg/M7iRyw3tfQqwYovAY/ZoeHg8wtTjdxkjeMcuulvj8P2lUI2v2Z1JPuyiFeIycUtm1bEFZq2qhale75jfyKfwuvINc3hgiYnPggn7ODBJusUuvVbgypzkm9ad64C6dwuxfGUGTluoRFdqDrP110Zgd/of2haYDxH7C3CMyyFKvhkFz8JtKb0yFoe+jcLJE0fgM99TNO3SdqqNFsNxjjb44ZQqqF8qQ+MMS7g8P531fZXA0ik80/sYwOzXzSKV3QcptHIcGN79wBuEJ+K18fI0zu0TZ7vTn+QrZMnzaTR7ExTc+OfYCAoOK8HL81/Cr4E6sJCMJ7Ebz/7VmwquURhkdt9+Ms25KRiT7ElWpeeZjHEnxho1slPKnVC07Q6/5ZYOt1fnAGVcM6T+fFnUuiFNRx6IgLvrWsu8oASW92E9WnZ3cr+GRuK+rf607tJSuK3kT/1NIti7ug4Wad2BllJzvNyujFF+/nht1lx0ey7Nqg9cZzOPlrN+jVb28+dGvm3xeHjns47eXO3nf30KpW8J0rTqURGsDNTAoJnXoKYtkStL8Gei1sPYr2fh0BoXQ7N8D+PbgjfY+bKAlGP7hWv/9tC8HU6wOXgY+3NmM8+pzsL2Tf1w9PQm2ndjPGTefwJ3hsLIWnAMlxR7cGcfj8NK0wX0utsN01KVsKq9FDOalWlaqZeF3jIvlJrnhX/zdVn87GesvDGYHAamwpqTNaSR2QcNiTXwfOsrWBO+XzhivzyL9lqIhwPVqHFbDNVy43Ejt5pk+l3QwL4C9xtE4aJnpWh/8xxs+20r/BiTwoZ0qrmX0bZ49408jnAcieHqldyjL8VwX+kp3+HVJly4P4abMkafuai9Z8dU7vOXYgo4e30Nit40DBfNy8TG2iE6dlqZretPYlt3J+B6yXj25u5pJpqrCSmWJ1nwqHzYN3s3zpTqYrZaOpBbOMRF2aziJ91wYaX50kglH6EnVAarxazxi345NPjokFirOd6+cJndOjAAB3QOsZwN42GSmDnF+6zG+vjJpH89jG6PdxLu6hdjJao38cGAB7mrvecnj1YltsCfM50/kozYLpxkr0HyLrFs9HVtDLqSThqyUWz4sjtQk+mBo6ZPxsbttVgvZ0UqxUr0d247FU0wYGIWg0y+IoXWVnWTFZspfHfBk/6GLKTf7pbUPl0Hc2/4Y1B4NrvsthcLFCfS6rWWWH/YhFW4lULIoLKAkz8BT/YuJou9KszQZwWXl1LAtKKMwOWyGGYYiuG2XWuolJemubr3aZPnb65QRh6Wuz1kDhvamO/DOJIMFQH8fgNWTxZH0a4FnMPRMfSxbCmurZ3Kto72oOfBzSxjSyI+CQ5n939kUPvtKrbd8jBb0ZxACwv1YcuqRAi0sIX7jpMw20uDvtoVw5X/emDkmnh+q+0LtsTBG84kR1DHvjY0OqROK996YfutsdjzZCb+ujGdInziMa0vjKWcyqFhK6zw6esM0r/Ywi//VMVcrGdT4fURjQo+bdy8DXdxwbxmtqr3O3e0oJttLsvCvfqzadqwP7TKvh7Zx99s9r5eePX5PA4yTXogUBS+OD+HHjIvMH/xga3z6ET3/mBeedIVJrV7NjyhM+TcaIfZyzr5Ut9jvILoRfS/ZI5Ss7r5Fp8ZJC6qDleirrGmKzUUFksw/s03pu3Qy/J8ZlLgjEGuTngOczcdYWfm93MFMkKs8RlBiZv6mfuF+5hz/QTd9VPB+IPjKau6ivVcPUQL/mbjHisnjJlsyT7pSJGyVzKMOdUF/MzhtKObZ3PeeXBOcU3sc/5r+LKaZxk/58HR5k20+4qAhjw/ccHt5vQcA+mTWDwUee5D36rtuC90KyvZeYY5t2pQV1g0TvirgSmKCrgodT2qKQto1jwdmLsjgE2veIgertbs8DUHvBVyjjGaTQeKb7AL46ZSR8YIjK+zIhPVKnz0Lp/N+6yJep427JBuLr9dRR42Oaxlb47MhK32PtAzxxl/nglm7+oW0u4R7ni37xlL/zaR/jutR6/iMtnj/ouUcOs3jLymQY/KZcD2WTrlmHaxsO1rsY3biYpx99CyM5oZPffEzC41/NFUwLyd1GnpiQTSvlFAUeXWZNZQzYsmKWKvdjzrdStGz31SLNExEs6/eS04w86yDXFxcFdwmK36+IQk22to6X/XWY3tD5bpU4g+I92xO16ULn+SaxrXeIauvzdmynJmFBtcADzMYa3xh/CRk5CNiVvB6vzdKfW6PVByFK2pVoN+21LMbv3An88Fys5filafJHCJZzn4hZxgcet7ITzOB7p6j3Jh/w0w4YnjJLZ2Aj3aZYENWdKo3i9FVy7toUFnHVQffpc/KnqNXY19wPfYfWbL/DmyqtTAU3u08M54OQxiJ/inZUHkmeGCzfa5NDHiLG7bbU9e79pZqIg/XhDmo22tAmQ67aZneu+gcfQYSPpRxJJ013Kdbw3omK0dPr++hWzHJzO+1APT16diG2ym7D9j4Nt3VyaeaEVXvxXiWplHQjog5E5IB3MRXdEgu2AKs/DOhD6bKSRfPBNsap6xLWNlaYF5NAk/5tCeDFFa+9ALN3rNQAdXNxwzLQc2PWuDER+9ScWqCgJ6fsLGMeXs2VQPZqAW1DgpcRa5/0wix9nHYXlZLHstN0lwsicXMppmcecuLqRPG/fS/sIZJLDvoJitj+j01Ek04Ucy9/cSolNaAMY2WVGuwQNQ7u3DApEeJttvyIU6SGLZtNH45VcblG8RweGTS6ABUvHbsZFkLnsIG25H4Ke0Fvw2TgnnfuSIT44VvD/YDXn+2Wj5QhI/LJWC1PFa0POxj1k73WSvdu/FD8NKUPK4Ab3tlmxKufcU799ZBTL1TvD1/SPm9HoPmR5up+4tbZRWegCjBAdYaoUKuxv2gRspFUWznKKYbVsc25bUBSZxWwSFq9QwtJzBXpdM7lfnTW5pQTFteXwDjm8NpV/x89F4lBMWkTJ3zcKOHyh8AKdD4zDolgmLXO9BeY47me13DRzhvAS5lPH43ukJ9ph9Aad+H9q6u5/nPeWhwXMhbYiUY4a7XkH+3GWEMX4wSksdJ17ewQ4OXBdcOXoH2iU5NutNDnRvVWHT0/ugjqpA4sA4Nubmdt5ojwPFLMlnEy8IQVCcDP0SmhRsmIgjbv6CmruPmWvABTYhSYrdeXMCrudWsjOSvWzOKBNIU5LFpdfO8Z0shhw26JDCms1s4uHH7GOWLRYrB/CrE2fgKcO9/7J0DBpFriQRUTXsL9ClO9lS2NMuz/uXdQhETP1wS4QjGUXJkeJiDRq9aA39OT2OZrb6sfFrBDR7lxiVrdZGZ+swqt9UgtqPT5PmKA9MqnzLvNrk6UGcEAIOmJBNuxbpO6pRwUZfOsnV8GoTZVFCby4O7ijDDYNzcGd6DfkPGQva/7sFtq6/qGKlP5x6f4nbE7YZ3367CyLiTTQrTo7JlbvR5NOr2PiqAvgUOBP9uEcovcOKWuxEaPdQDiVPKGArKu+BZYQmnXjoQBpHTXDkFleKT9JDH+UAutY3E1WOvmHOp+sFvlUH4bV7L26rT+WOVkji8pPp6OZsQia+luzFkQ38r12boDR8OgSZltPenOvQOFeDdp/WpSKZbSzmYz7qdaynqKHv7G5IIKakSHAWRyaC0phClEz6Cd5Hx4CCYKVQS6+Q1RhqgM6jxVC/ShFNpcNwz9xw4SYUZYkGCfTWcgGpmpWyiWJD6H7ajWXN34HD1sbQ6J378E7AREqo+8abvVEl5ZOZMLjRHlftLCf3+7sp9EEWdHkr0N1302l9exFEaddCr0kvO3h1ORheisXU1nl495AxTgttoqy4qyzk+WzqnPSDmdmtQaMqVTItq4YLonu5dhU5lH7uTBINGsy9/Ipl8up+9uTWEvpPuRJynP4xnvgCQXejNHt3toS19WULDFyWUG2lEkrcWYfO45Lx/awXTLrjLfd4yXkmO3ci3Xp0Ai1EROmC9yq486ySfpz8zfbXzQH4dBS8/rqTo4sKf/FYKs4qGkePjFPQcloiiYwIpWnP+tghXpvg2HcISssja5sENrrrIiuWaaXNPRF4aJRj4/7oq2yWvSJVz9RlM79k4rN3BpArNhWNZ/WxfOvR9EnLBPz/K+Ll4txYmdxINph/HdJMatnWZeIYoDxNkLd8GHzfvqnB7sd3Pmj2VZbvW8DslOaRpEAH6odLW434EY0bj6lxVfsDUH7KaPRJ3ITaC+Kp1Hw9Hriwm2Rv32ETdgvQ8Gg74+QP487Th8ivfD5slBcwlUEBnlSyx7wiDyqQL6YJvBXtzJTGtvJglvrUg/e6FIaTHIMw1OANnE8xZS+9xZiz5mk4FC9Cpl4u9PhEBfMyX0q289XpeJAFzvu0C8WOX2ftafmc0mczkN+HbKpdIRuxRhO7Tu/EmN/l/NUj96jvYBl7afoWVi9sQ6+LpXxv63BcEnuHklIW0zQPGzzXGU53vmsz8/LHTLtkGmlO/Q8jby6huFX2VGs+ir4G7qO/j8eCtuEMlEvcxLiRvWQrVG7Y3feNzi7byK3P90fru6dJ/oAfPpqXz1YG7OZmSA6jJf4b8b3wn+Pfn8tt7cqGiNHExijOpb/742hmoTzIhVzjC+0ZNPfXwwfvcSivfAA+v89ACVNF1OO9OXmlJvpj+oR5eOcLU/2QWjy/s6n3mnDdjFWN15Kl6biUBfH3z7BMsVaw+/d2quUqKNfxDipszOEJ38wGh2nhxJtBdHZ4HDwerk1SB12Y7qqvwssH+2DQuobPa81kH8ZZQmlRBH9g+EbWnb8D7mT+x4dYvWfn586GL7gMb25dBXvHR4OZjAWphSznHLzzmW1GJRQ45NH75GNw3vg7BAiDuFWLFbBmtyg+i1qCCiPno1/uHmiSiUeNXF+M274Ga8pLSHJfHNOjHCh3DWcV63fBhxfPyKd0Awg3EeU+2QdV929xV7bU8z27L7DQKg/62uxInu94/BzqjdUpqtTkloG6DSeErvLj2QuxhbRq2Q8IditBKYur8OiUC7y8sbPxquwKbN6VgtFqL2Dt3h7gn9tRXeFqXLHrKutQ9cCe42fYwztrMHPZHmgebUcfwkcie3meZVSMxQ9Lepnr7eechU8lTnzEuPWVt3DdX2Oo190N208oM9VTJyjw9TjyiZaica/iQVr9CCtaeALnTRrEHKs+0tbVoiPX7Ul5TwhLlpuPb/+x1M28HLw00CS4deY0fNDRxMD8GjLoE8CuwAEW8pPBrpdS1Di9EHMid5JxbaggVF0ej8M3/uXcNNQI6IamJH2m8UKSpp9dQKNdJbFLqRokPGRxzOZAFAQLoWjpLb60azZo9ElRudwbBF4O7+6o586snkMFpnVQfjQa5rr/h7uDVfDb7LWgEH4ANteH0IM8f3T7qMXOaHiT1z+G03ZpY4pXQuhlfRWKXEzmp1u44s1X+nTpqzjX8dgGXmWp8X6vpHDx2Yec8cZQmr3Hq0Ffpp66V+1jtcf2s3fhCqD6QZsur4nDDRnTIWrwsMW8gq/cdY6RjiHjQ57K07dBJdIdF8uUH3yAIJ8UVuI7DDde+8mSyyWoPbOXacTnoLhOGjSZDcGEz/PZt5gCfJdyjP/jbIq7xWJZmHwUnphQS8PtE2mkjRu3dFcG3aAY6pqxkU7bH8XwMUuY3aMpNGt+FHlsXg9bh/9hJahGR159huZVZ9lU91VUqx9BrpMPk8/yQiZ4l8z+K5Fnuke1qT87ko6tFoKExSLiTz6FOucO1ql1HZ30CTZt7Odaqwfw74846lZqgr23v8HreWcheXEU3bkxCDe2FnESBVkU7ZnMZyeZ0GR5WwyN2Et/5oihmcNmTJXT4JM0NcDsTT3UJ58TLJ9hhC0t7RCzoIGJfdcm1+ynbIRzJSl5ZoAKZ8rsF8SyKGtXTiv+Fbb+tME5J0dRbJkmJBy8xQ7nZ6P9nh5QFLGFKZpHMfe4FuGfBhY6YQQdeLITf4mmwFuJ0di7cAi47SHCd47ZoO0mg4YGRbzFzFBSjNhHsmWzaeDWEC83YTiR4BroNKXhKzkX7P7HLLJzJ/AN9ZLI92nhQgc1uhrxicWo7sDlndLkv3VE065RbXjM8Bw89vzHUdkryVXnHEWETUSnpL2Y9I8t7A9WkuWUs2TUuBh9nP/Dtfl5got1Bez94sP4wVoLo9aEsmMvRShBOp5sm/3oy4NrzNwjl90/NYbSPw2y9QEq5H37AWTzsjh5/jJ8sCWU5l11hAIfbVKWPUwG9vcgfFclSi84hwE6y3ChiQ2O6kuBFKvDFLpclc69P07dypp81FgzqpvfJHRtnSdc7TGJrk09yOfd8sBTt8Ww/J+XeaQO455+SRY+LTEB7JYA6fgOGD5enF6weMtHuTmgXl9D6zRErbpcE+CL2Q5MdJhAI26MAbWkaTjZJhmOKmTAuupJkLo4g6u98hjdio9g2PCPbMKrSGZ6PRINt2rT8HMm2FUwkWSHJ9Ch9h34TtsDjhadgtchZ0B7yhbcOHE6m/s4nUQ6zoFv11KyT0/CraKx/OCBs2jUNpZGbFxOlhJXYFB1ER3+kcaKH06ij4HTSF2/BMTTt8DdgLuwKWoj09tlic9hP1hMmYIvBiThc/gV6h3ZB+taxrDWYZZYmtUqfNTvgmcWFpHtRTsqHN8GJh3lkHRP1Epaey4+m+eA8Z/3ofKXKLLfokEiT1fg5AE36OiqZyLhxLXs3Y4yW04wow2+uMt1PemIqGP0D3Xi55/jFk/2wlFKI+DPsfvC4sXxkJIRjDml7mT+fBLNyVLErv2WFNR0j30XaYb9m8TwiusxnPRnMzsgOEfBg85cfuUAPUu6yvc+qBHeezC8qfF5PkqoeNPyS1Mx2C0G9D/nUViLIagXjECXrmro3XaNTfAb4IIjjBm7ZYlWC7Qwfcp9NvDP/dfeW8cWr0kgw2/HmVG1GFxM04aRh++jrsgRVn71PHPIWMCLe15hp6Zak1OvF9kW+KLzbRF8dm45HdwTSgqO3qi+UpftTdBg9c7r0FNMG9RDJ4PiShGcGR4Pz1NHonBgBkxsKcd1777ispIqtsGonT0uuMq2qwyx/ck/Ad6ewu8pC1lpZBb1eX6C9Tnrqb5VGZvfdTB33TDE2Rlw4F0czcV5sN3WAwaeXeWgSgodpeLRZcxWCo/IpS+XirDFpAfcEvGfl6+ghqpYvPozhbf0GCCv2TzkzPvNGXo3Ci61vea/TFlA73/kClaIaNFTrygKteSwaM9ctEFf3PvxNrdn7VYcYVXItv8ZRTpvorCs5x8T/IxB5fNkkW0sydZlWmJ8TgTabKiFd0XuEOaUwK793AmSgi1YaJkOB1Wn0GFZQ7o75wW3YZwYVN30ZGu819GHtAUwhbMDvXFTQfZLFLhPi2UTMxLAOL4JzCff5CMyjmLz83189F81jGvv4dVt3MDiuy12dXaj9Ch1mj9DCmvcfGlb7hsuB0zor0c5PLy2hxkeMcKjQW0gYfiIHZqaBLuzp5CgWd3KviMJZ402p2916eS1ZhvkZxzjlJURsn0/M5/AYioxOwXHR08lboMith/PwaZAQ1byYIiP03fB3cLhbNUrb85IspRNX6qEJa0H4GIC0J5rK1FnxE76avweNpW6wK5H4pA94z1rcZUmFfMt+Pf0QdoZ+Zv9dV0Lg4PENYWMRGOtMTSuYDKVlakxz23iOHOlAs6YGUdNcIepXBDStm0xfF+YGQ27V0PDKieiorcuXX1rQ7OPSdNOjT8sRWE/bmzpIJfYWia1QBRbu7ajb286FqMAfyt60tSCVxRu/IheHDrH6d/KY82RtqxHwYvKQi+igUYzq6lfCdfmadBATyRT/te/PI1bSLo5lzu9N4duOomjn89COqGjjpMUBvlINz86NraFmzhpCVPxNkG7yFLBuV0SOEpqMt49LgYf/pymPQX+0BGjZXlb05yd1pmMud0S2GY6lzrlr8HAkV0sfYQPfWh7KpTsvAVSpT5wPEitaVUVoNK4P+zbKgHO+DCSlKT/sOtF2/Dw7dFsmeNoCH+0mWTnnRMEeeuQ9q3t6PZDju0ZKmNbg0bjg/RFZJv+kE06+AwCpi7hzEqO4eaD6hCn1cLmO19n1+9NgKZUXdKfUYzhK8Soq8SQXiXYkGFGMoaoZtHicU54L0ULC7tnoMd7c4yL/EY1ly/C2fwSOr0nk90eiGgwrFuOkQtXUnteClN0sqWa6vfs9iEvUP7vL9sx2M/mS0ZT60vChdLH2YDdFDxpvYkO154nrbXSVPZ7OAW9qMfEx5pMo04dJHbZ4bbSCIwy0KadD22Y5wkdZuEtRQs6lJmNvRe55wZw2kc6OC+3ZBZ01oFWPX7B513JwD1+qXznBTNyYgvIz+wObxQVgE3bv4Pypbdcob46Nph8Z7MOdbLEE91Co4ppOMrWjRk9H02hsuNxb6sInT89kQaSD0L82u+A8jGYsUIO29KeguK9k5y3g5CtKdMj8S5NunowDr8bdKNhqBf8+S1K2k7drNMrCdYcHg1nbM1IxDaBYjwT6JvVBDDYufpfjU4EZ+0zTP/1CMTVsuz40zTsc7SGQ++HWJnoekHOj+HYlPeen3chlg7oK5KFvBrjPZaA6BvkL99oZgoDdyAjPpH9Su3kfkrW4Ix1htSa/YSN0s/h63/OxaXzROD+eCSlQSm8GCtDHa8i8GxbMqbcm4jrIkK4tnef4WivESSMu8LUQy3xRYcnrTmKjL+7C1eY22LO5nLocmhiJ2IYuKkdpFL9SXi78Bo5FzXQg8Ql1OQrjRuMj6CORC8/1CxAu3YtqL6gS5Xi5rx3+kysS96MvUJL2rtWgE+muqGBdTMMNpdBd/1pQXmCGD5MPCdU7ZbnYgujSCY+gu5Fx+ItxcNYeMEf8r6+YNaZSdz041+YaooT/Bba0NghHRJ8Ciaj3nJ+4v4cOHthL9V0aFP0LMQD59vhfrUtvyt0AeXbZMLZ1CIMe1oHZembIeGXApOMVsYxfmvAaLKqsOZqKSjbjcXEyr18l58MzSiVwU3Sq+lm3b2G1fCexQw2sdm399P1lrHsnu06WifRJPB9KIuvbznibfSjtiMVmJXrgbqVCWiPMmS6WIymN03HsEo1CDZthAXPWlB9QjUXBcvZQuMXkDs9i9NCTdIRnELjqVuxb+4UuJMm3VTqfAuWecnSj4p4FmD7z6VjxvAPfrWAfc90lGDxTO6aBiXWnIYnVl/Iq+E1fA2LwUQbC/yb74wG7lFY0z0Bb9msxH0Wu/m1oeUgfj2Fkl9+ZlWv9Di9hnj+YoI1Wl7cjisUS1FEPomlR7iReGIWfRVao1a4LO31WsbMjaJQNX4MWQQD+9CrR9MCHGGljyI9rNBD0T8ytP6+AT4Zydh6k7MwqUEJ97s2keutUq5kMfIrY57zzeOGBOflTwmGCmfBrlGH6JqCDLwJjmCx/xnTovsKtPp7Dh/1tIQrvK8HDpO7KEClk43WfA733xvRHX9HNnNpJFt9URP6M5bgXPHpKFOxiXx66kn1+GNOfdEMDDfLJaHgAg6890Gofm2hfbaPWZmL09lDRphUEYZLZ77kLzR1sEuKcnS29QB+C8jm057MEfz37BrqGC7Gw5JlqDaxgLfeMQAy+vW0ptsS+xqnWabX6uLY0GYY6jFE9e2uqHPtMki8ECGbUjX4PWUr7p3ygJdoSSfP86dBwSaIpXGJMFlsPPVwFUxx6TD6Ojoa3ilvpvFj/xOaiSlBjsxeZh1bA7eFzrTPnEHFXXdQa49n+358BRF7FUx3HcCPd8TwsM4VKh0rhT+sMznRghLcP7WMe2UiTa+nlcLRJJ4ZPVKjv2nrYDVnQ0aPpFlO7CPy8+tC2w5Ziun6ysrGpHPKKf9h8LmZGBg9jjr5Bbhg0SC787gddu45LpxVPYZWRJ4FzbaVcD11NLaGe0No+TaYfzuuYfunUsEi32mUXHkTn1rmkm5NNxso3CDc31bIHMYsx8T8G/DHTo49PbkG1kxrBQm5vyC97yRbYF6KNgnGOKVenWKj1uCzUYdZw/5ojBnfDwN3QjBNTQajJhXSPrUkeuA1jS4FDccN716yldLHWNqSHHK5J8mM1YZhq9kTasqSxp+7CpnY6h6B0/JxFNUjoKEZrrB7+Rr+/g0FHGyOhEm7QvCYYwe3Sns6VfWU08s+KXjuqcxF1tjCodJ3/3hej5v5sptE9oy2sjSMw01r7DHs4RaMOsfh2LFH0fN1PCR0JmK+wmJQexDLRs7JpFu9hfDjvDd92GTHZDaFobvAnxn/9cevdjo04VUrJHuNJstf2qjt+wcuuGyi2XuXcyxuEk5+3cifLkYqSB0BlU0DzCl1L63yUKGgJa/AurmFfSi8SEVLOBLTVfzHw+4s36mNO3LjOgTGlKCGyhh+i6YZ6r7KwEOjdcHMIwqf2NqzgKYxaGu+ijY11kJL7zTM1x+CGYlHQVI8gxSHfoHFwxNc1pPzrNrbi9zqfoDxajtuSqcI9Mk1sh+hdygnPZHZ+X1m3euyMTs4Hedf+gp9/UW4ytgHtZsOckrKDnSgLRaCa/z57VInKVcthWnHt7Nb++XwpMd8/p3TPsz++pZr78hBy90jUKTLj/Tl4xtpBUdXB6rR78ZUfuH4IcFJf1EWYGbM3VE6QA66laR60honyPbwEnrS9PNoAiV9i8d2nV/s1x8HStK6hd3jDKhg2QeYOH8OHJidiBe/9cE9bhpNHSwXBCwRRxvHGj5efzP9eCONBzat5Xf53gTXsh1EE3WJu1xJ82zMoWFjL2PGV6Cupo07pPUWbhw7wU78mQtzIqc3/n06F1uk9Wh40ltBt6Qyur+4YbnZrBwPiEeQftt0VMg9SLGjKiyrwh/DSx1XnC3zCfPkHuLAr/Ow4uZDNmuGAQxaPRbSgQxUPxyOVdF+TGanE67YdpJxOpGovy8Vwk+6gOXZkahp9JD5ShdjpM4FKPo8Gy55OWJCVjEOe//RsmLaM3gx4R0LuXoF7l2VJJvf+fwWqVEUFj6PjYrZSzee+KLIiRiac+UczFC4y4b0nGHa2pEYeCcPbB2f402pbCgdo4uuG3Oh/8M3pv7xBJ4YsYG5FyXh5btHhVtdn+E+V3sK2COLjXe8cf1wJXgYmUdtB9UpxcGKTks9ALN7erjhWj7z+aKPdmk90PrRAH1ipOhbkBd234/gGqRmwThFHoq0zrLjRnOozprojOxa3BaTQH3HA/DZOH3snB2JV34zvkReQJ/eTqcWy01swYRC+vNcGmdNDKRRw18zj6+XYKK7OVvW2scsaTnCrSwI2fGCLRYLwwXloniscQ9/+3wFhXas462084SH8oTMOCYe8UsmrAn8KsyLqIXLC+W52uA6wbHdZSyXW4e//2wQFrv0s4vL/lKiWiEbdjGQ/fSRxOmRm0GpIZ5z1nkGB19Gob7NIeaZ/pdb89kdlYJnkfiLEmZ/aD7r2jyRZH5JkuXTUTA+MwefTlpFYB0NBl9zyaVsCuu+JkkNJvfZ3y0RWHYtFl4+PAlHwlRJfe9oZP67sVxJHKr4SDzv9A32ZCrStrr/6MSxxbhtniq05uWDZKUDCD5OR8v4C/ymCn9cbW7JMg5WYNGtZqbjn4Vrg68LBp//hYbKBqHaq3o0f5YLDzaf45cpfmM6ETnQ+bWTTfoiiquW36HB6w95f7SgnXkF/MPLgZi6LRyP5O2luLvG5ObxgRldOsvr7bjLZD4Hg5dDHBiobBHOk+Thwt6roBd4F8TC2jHJuZCrsD1HKyY94I7E1WL3sS04579RuPLBCxwxyg17tutjaXsNv26PGV1S/8K0rqVjf9ZFzoYPwrE6azFg2ToyTjWnx/ZtnI6TB9z/nQyXD9XD/ZFP8ci/vI9bF4ft3s54y9Wfun8sxiW5fkwH/qNtXDSri4y3GMCJBIbXufdCfQz5MAof30zGvpunyPSGE2U9jcJ5b/NxFJcFwkQ1dkfwk+U+34JvPU/Q28TdWLyynUu2+cWm/x1r9eNDMFxsecatNfAB67phmKPzl2WeiQJvP0M0arwKIa9NqdShhrujYk6Tjl+El6UqbF6HCm7Bm9C9ZAVNd7MglQvDcU67L6Z2ZEF65Rh07jzEwpovg8gxA1o4eg77vEfIWqO2Y2RYBOytnk+Lv/2HqiLFNFdMieVNnkuq9Vu4jo8fWX/mYWgJnwNruzp57MhknGgD23a1F0QXarJ2zREo8TicVLTEWfsJMzDQdWMDMz/zu1pWQ3ppOQwFbMOVnqrU3F5CFWMS6UfHWBToqeKSoihW3bIOSl1ucmL1s/CsSg/JV0rgrLWxFLG/BYqHb0S5LSHstQNH6ffrqb84FccuTIVFpfs5lzkD3PCII6z5yAIm4ysH0t4/gGmp0+h5BtTIgtkKnwqSTQ5jTzJFrboMZbDFXpUNznPGo/NLBBKZ4TBvkhqcPNvI/hrboe7eINI9cpQUtQ6yqNYM+rmvqLG9NYb1VsXT7cWutOidHTydMxcrh1/h3c5/Qj/ZSuZ+YAM/30iVNZ7vYq0VB/mbB0+BaKEcjTwxk3qqRuHsoXYm13mdfXl0j0k89mMZYlupLHY9aOZlI3yO58w+HqBDbUvpwx4lpnbDhPkJtbB/cxk8NVlP0duH06aDF6H8uQspmM6gP+PSUC2rHHL/dnLrNS/j3NVEhU2LSUrTjzu/OQaIVjM5x0RhVq4cnp22EhLevWXzZTr/ZcMb4b4AJapVlmQz6tWoty6Mt/S/B8HlJ4SrZ8/GpRvCoVZHwLLvB9OdTi3uZOxpjFt2T1ix9iVzrpqIWaMV6GCGBQYYhFBhrAhr9pqDy6pLcFX2M2Fy8XEY15pE12/GoXlqDjw86CAIjsljJea2NOCqCGX2mUx+YxcYi2qwlvMNpLP8KsdfH08d0Uu4zdc3UuiLAlxwrwKCGj3ZNNHpWLpAg8Z+r6HrzmrodEQRy+7mcftXHqALOwQ0PWMThQboUL5jMF7S+c0m3E0mD2k1fHkpla+YUctLpihhpdREytrygD59tMJaA1Fa6prKLyzOhAtbF9HGOjO82jCJXv9z52dv0rElcB8tqb2PPwu0yavSDTKCptLtyX5wa38jPQ5aiBeW1lLIQkto+6RBvlIj8IhNFng6jiQt29HYnfWRhV3qZn0eHWwocA28/Zfdf51ymO2fGLo3uIoVJDWyqqIRIOOyhqva+Y1X8I3ApR2poOaynVK1f8Gny48Ek35GUcq2NxwsaIQLvfZgv/YINc8PpMVaH6DstwwFmVnjmWXGYG/czzR3bWFMbJCrt3+MYi+SsXyaFDYGWLPvk5MYS9agFx8z6Gl0E0iYrmBdkVPgecYMmPcliLadXcr/zeSowk+MjH5Px1SdbHj/8x0L/zON+kaEUoi/BOoVGmOaXzAtWjwDjcXvs+vP2oQb9GNZ3bRvTOa/I1jseJle+Biwt3/30SW7seTpqUYrPFSY16AvTnKVb9r/WgHf7j8Fpue1UOJDOOniKPZnxnM2aYkTKu1WJZ1/81Lr+VBwGHHNakTlEG3UcxvGzcyPgeyRptSyW4SEOk5MqXYHepcb0vjvU3HPmzQ0eZWGDzYpkmLlTxIftxIC5a+x4V8T2ao5q/BXz0bm2JPEulU3cOd/HIGQnymYNE2K2lY9w5tpqrDuWhSG3bqLw30v8IeNpWiyVgLdXBjAvgY1gH3YaZgh3c3znz/ASYn5uEFsM93sOMxqpsULfDcVMnMugxkFWNPSmZlgN2UmZTx4DCtO57HVswP5Y3nTqMTfEccMm44C6w0w4DIdVn9whcG/Y+jo2cXMKz2SdVqeYt8KuuDO1Xpe/vkmTPzWhWee13LHLKSh+/s/33xJbOE/J61W9KOxij5kJ3JcuOUl0F3/0dDdmce89feDnNZm9kU4skmy/Td3VzqQTq4QwfAri8nilAzaiL8V3PHYSjtDs1CpWAzvyRzBqY3uOG55InrdEIfvt6XwTWwb1B7X494nBRC/MJZuHV3GHcysxynj3UnR+p+7np9D0hkpEFh/n5UGEYz2bWQrPA4zC4U95H/BGav3i9Dxu3e57O+l7KqIGNouS0VJhTPswj9G3zYrga7OOsQV3FhGLwIsaMDmgmDbwaME06tgcOd4sjd4wBzcLajlQidMLW2DnpLDKOmVyk9TKKRN70bg8icbWcfwMMq1yGWvIy34A8MKsGuLKynNOMb2OcuiTM17tqbxKEt8fRI+1Vuy/Bm3IO3QDhz80cGyPTpB/sJerI1WwKAfEcKPZybTyS8KuGuzLx39kc57P9Wht+U72dGsBtR/fIxlG0/HQ2bGtHynHhlWK2Hcp2ycUB5HLgXLMbr3JEv7GE5lDkIa77eC/9taxueuX4+6C1Tw3oI6QWm4NW74UwTFLbH04+FjNvKkITbql4PZP3ZfdWpU06JGaxjYnsPyJe1AtnMp+y/gCn/nWw4TeVrGi1dPxchiNaHzyjyaXFMq3LHDAHPTF5CDlDP15sbT1IBgNK2yYcG9ltSdNJfin42iW/s/shU94+ksi4JKPVlym9nGPoxfyMLaeli/5St2sP8MPM9bSyXlZmhfWAvSBofIfqMXd+jcL7i4/QMXft0D9AMCMXRsNx/UkMByPzXSwpNvUNa9n49UNmaJYsT+08lA3yUGFBXsCY/0rjHj2kIy0i1Cv8LNbMv3fOiPyQPNz+Nxh/deWJZiTpnnh7GhyQ9B56M9vosqYZ4zBkFu1EK64PIGtm98Tx2FvRC0J4YGdKu5gFFZEPlkilWP121QfxUJLTGTUe7lRMrcZYfrx2qi+ZZ3sMFUCg892kq+Bzez7c3uFH2nnnZLPWaaD2+yar12SL7gjt+vXYS6uQdY9g5HbPGagrdFE1H0fjYuP2VKJmmXIMuglqtfp8BKWuK5/JU3mAbNRyvff9l/pRUeyCpjvNZaXPpGlsa5lODiK1fZlJhI9lTvCqTOFsFH3icorLQSAjYfh7P//K19xx/WIHuRYteVs3CRbBi3TYX71FzACb22kd7SIxx72Mm+sj6QPp9Cn8wUKX0GD4cbalik7gJuyF8bj74tFIaZjoMq7fvkkWhD/V8XgKKWIqtcfg3TBCdw45zJ7MVPFYxRsGNb5KfT+RW6HPrdpVeu6VDKB7DsYc1MdOs95recsZvZOnC834YWzb8EPXcUUcg3MG55NMnqttG+mf3COcGx7H5RC0wTq4eRb2fTQuciSNwSSvQwljw2PGEZ9i1sUogv+opE0aEsLay9bUG/C/JhaNw+0Jm/Act0JKw2vB5Ov8I20s8+K0yYMgUf5y+n3poHpDtBU1hbI4aFhp7si/dnTkU/jbtbKIEsTxPvFl4CrWgBPQh/x74VyuAZrQgsp5X0/pw0jbM8Twlr9+FMqSr8L7qP7bshCl8cVEDx+Hc2w2Q+jS/vYq5ZOSDZNo+mbZuNY7TNSWZGDeu4IYmJt94ynT/mKLaghUwtAZo35OHZV5fZxzM/Qdcukg6GipGjizl+0lrMhKGxdNh7KW7WVMX99wXw8NRYKqyQYvN+HcDrjr1s08kO+LnJDEfpS6Np7h1YmyiH0/uDaVu6C4o9HIKiqEC+NcaI+eh44rrxKRTgVU6PL32HJ2/NaYKKPNu//d955oji85WGzN58NEZ7/OFdPxBaT/QG5Yfn2IGVP+HTpWhUz8kl19ISUvOQJ724TezczxqY9i4F8nOTCGN4NFleigWxoTQqeCyFe8VR1JedJCqtIIhXEENjeQ2s/pEK9Q8E3KT372nSgk9gduQafD2lxrIGP8D5VBF6XOsC2a8u8HN36LPfz8eA2RJ9fKM7g5aO0ga5yfl0srUNRGri0E09Bvaq7waXsNsgbuNNyps1+Y8JcWTxTAEF/jG43HWQt56xBG+pnOO5USdAc7c8+3w+DTSdVlHHf6uEczeEYZzHJTQdHo1eNxfQs2EC3GaWwOo+VMN4++vMI9mWtjolU/HKPtjgBrTVLYq/b5ZGslwEVu2WpjeFJjDkY0IPt5YzpVulsEgkDx42xmJvoTdmX4qHCorEuYFLMPrFK7bP/J+PicXh51NPwHM3YorsaDofchvmSN4Cf8dPkP9ZFl0dx2PunWUYpHWFugq96bqpJGZdLoKf98Xo3IYMOCAuINno6Rib2UA//CUFv09zFGDegytvR8O8+yY4wquCni30AcspzhBrt4SmrWulrDdJ8HWRATS96mb77FUpr20/y/Jopo+xa1jveyVY0DYEXa8WY6DDZXa5xRz37fwBB+Lq+ek5MliqNFfo4qQtVBTvhCdZlhiEb9mr9kF2emUpHm85hGbnhZA21wwnKVfgfDjAvxazAoPkWDa0owFy782mncde8QYZkkLd12Ph504Zq+latqQVsxv3aFylMXcL2bSTPKeU8Ih9MthL3Q5GrC6ogdE8GZh6fDJOWOKNz3+Xk+GbdlJrS4RIbhZNulJLgqo5aPjCGBeevAUqsomYm1wNfRbWkHnxDnw/bwOdYte4PNej0Mr9hS8/J0LeP8b/28+zlY7RuK/DFc/c+wK5SowdVrgND9LM2dSfslxrRBTOeb4NTUabUtzaPUzdNAqzKuLotYERDRsS+/d/D8CNi2UorWFHQb7/eu78Fl6xPB6HFcewryN80TtpK0bcmy4ImWmEjV91WHD/R/6lXTW7NtANYxuKwUh2NXjNWUa/Ej7Aw4XxrDdQFN/mB+E2ToUb4+mOi1b2CLY/SaKnIuFotNeFK9lqz6SMHnGu7kvxzx1Cx/RE9lJHHMuULEFVdAnq7jlCF0YijN4aA+gowLfzi0ljzAeo6j7LKU4RsTJ2NcXxCpq4E+TBQr+AK0g0oON2u7iqqBvsiUwRXcw9jrpP97A5pEaiGz8w5yOVnLTRDOHUmrts/upX4LevBH0PfiHTmmR6vLpIYCUuy9sHPoC6WxvJPHsPM89dQfk+Iym1awMuzBmOGfP88FO3HP+oaw/n/fAG876jQ1f+7OPWSCSSiJ8NgZopbYhfisKqSf98QoRuLX8Mq6urYGSBFfU806d3iq20Yb0JCRxvclauo3jZf73/S302c2oyxRGFkezEqARcZj4Wg/KawexRMi9zTRQbMp9Bh04FHujUZEr3pFlsdDZ7fVIOFhZmcatzrrHnqZdRO3ca/jr0HIY92Qp756RTLF0Xtvl+hIriTObe/5kVel+GtDYLjMjogNAF0TBsagw9CVbmvzaOhNhH+/iSWCEoOani8TdZ7EhTBZUvL2VXuofjoGYbPL3B8dpsNSeqFEJ9phbUOKMcld2SaO6oAfwYJIovJwzCpm01FDNrJjumPEuYqZzPZ33JgrebhqH151fs/Cc7kp8eRkfkTXF0zmbU3FQP2wTNWPpxLJhTNKvuPswC43Yy8S2z2bYRBXQ4axLUvfnErbz4BdKyZFjEsXXsRkgCK/8ajaMWqUFJ2wq2aOMwvCI2l67FFaJJ11gWMUzRSi+mFXJXmGPyrSY+oaqCOZyeTVa9o+nQnwJoebGFdMSy4MH099TX2IxNq8X/Zb0Olc1pwJ67taCc20yKZVPolPENdiZtJdf4/hRnM8EZ/0zmgU8Lwg8+I1nZ4adsxNdz1NMTyBa7fGJJF07D5saPcCNwLhuvt1Y4TPka/ydqOCoIvKmgcWZTnfpwUrc2oN9i/uyFRRZ45T5hY9vfMK91SGtUxlBRRwNoxclBzX47Cun05hTf/xSsdvn2jzek6dxCARpZPmDXzjyHe3G7sd2wCkdcqmFP1xTD5sxAgef5R7BjeDzXKeFPugMzYdTdNXiu6CzT/aHMbYrhsK7XnXa/ssPNQ9fZpw3L2d/xPH94+zgam3sESqtioKO9nO9JlEWTUzvgincDrd8vQ/81/YTyoTdMLy2O2WyehtN9ZEhtzy+2OSSJXE93wcsTnnhuWge2meXiqr9nOfXUpRjgsgzNBvtYdYU9JlkXYa/qI3bi73YcuJINczUuweaf35juy1j87WXHDThPZuMGlpCmcgBtlQvFI+Lx8MhBQLusZWDtaw9Wt7EO9qjeh6JJAbAoOIkrNjKloPBQlDaUoLigiVD8OALyr/ZxXUlf4cbRaRRgkIoNaanMdtZIiJQ7zNY9UsVDs81wY/AF/vaEKtqWuojFT2llZuKuaFHThga6z7jqHDfMXedEQ5VJZGJrQbq7TwhPjkgk+6OrqOu2OFoGXuVsVk1jXuv74M/KlVSaZUL7zrrgyYRXzGB6HZuwSEyokzmc+xXiyN7kWeIMDfnGe508ZKY50PvMo7gLh2Cjy34Sr43AXoUYluWGULe8mdkFiLMbgnNMzHUHlnno4gpBPMZ3HiZTu07SG5lGykeHwfeJV4UZt8fRRIMEzv08h2p+T5l4nx6JpAzju8qH0VqJm3hAyRTKQs2aysP9STNfgiw0RenguO/CpDeTSD1JiroGRJraFh5B/WezcNl/4rRj2XMu6ngWZQ2XgA0yshS2M5cublClzaGlGOhYByctT/OxxfpM4s82tv7AaBbTMAucqhdgrfJhNj1rK0QMzxI8/xxCwUMmnPOJUbju6GoUl4kFz1X6OCmojg0tMacPbZrkeesilmycDbk+S0li9QUIfnOJWEcWWjuMRUNpMTz/bQCuf/gMu8034qeNR9lp1Vbsv2BJqw5o0pStSPEOF7iNc1azeypi9Fx3KVZzPazUfyJWPVLE4+MThLINqbRx5Eiya0vFk3+OUYbcZay7XI+VOAEbnKIp0tiP6Sx8DofsZ9DYPdFUselB4/plU+hj679e2VBET2TjQDp9MhnazcWg3254c0kkirmnos8/LjWuNMRNt4po8F9+rm2rZHOKx9CKG+p0uPgYTBwjj+drirE1RRzG3JTCwCctsN1rBq0bWcI9+XaFxd4+TQE17XjHqAhfhKzhz+aPhcyv11GlIBp9wwahcWAPbn77nL8bXMgbB+6D6soXQgvJ9bji4XD8X8PlGc5lA4XxSlYoq+xStiaV5P+cY5TQljJalLaGtiYiKTKKvPYMSRqi8JxDVKSoJGlq09DS0nz7fq5znQ/3ue/7t/mwNfvfy6XMMYEotdsRevln4pg/c7k9YCcGdkpEBZ0A0tTNFjaP2EdhF+UlL39O5uLuAO4dFkOrah5Dzp1t5O5sgfb9VvEuPW3e52wBFqOekYHlSZ6VHgy241NwUvQ30cN7FxQ/0qWuAfWQrNMT85768YTKCQi+IB4umI6ywcWkc30WrWmTxikWaYJ67jqe/72DdmfNwwkO/cHxzhzQSy2CmYXN9Cl3Mlg8nc8bX55EUd6NO2vHCAlGp4FOFqNbfF/bZYHD+K8doadaNt24VFKeGRjMf3cWCLnuH8T31YjG5wJ4V3KmuNexRsy7GyUOz7hOSopSvGyNLXtlM9l5a4iDsyI5edgCztbK4M5BNmi/9ylXyImiamwsrzbwxJzUnWgV5MZzuAh0jAGsYmWo9/UsTB0Wg4/CgvB2kxk2upniBpO17L5gsXihY6rgl7cYLCZtJZtuS2xd7Aa9rsSIhi9G8G15PZT2+wgzpHtwn+c5bDPlDLiVlMI0tXyeNVeVq7v7YtfnUGqxrKM4x0jarxDGI54/gsEPNfH8hkKs2JfGpitduCFfnUPW2LPes7PQEvCWLw4di/7Wv8Xao4Yo/JfC/aXuCrN0/wpNfu3wRzyAaSstuCNeg97xJn40zpQ9LXMx8x8bOtuXQX3KddbpbqfCH3aYVKuN+u3T4OKTWdyrxhWSB74W3eYkib6ha8BR/xlv+nIU+hhYYZXZOZSZtIms+kWjtn1v8j4scnqDFG/eY8v9pXuAt1kvkqxdJWZoHBR0l9SC7jtp+oovKurzPoLiusNC+LierG7qiVcC73D7Jmvxh4cpb4+ZBa/ab9Dx7N6YefMV7Nc2EcybnSpuRy/Hl1FnIFbbFY10lTlbYsmtZdMhIzFWNFIdhOXuRaDq8qlCae5ePDNcg2Xd9oguZyppjkF1BVkmVSgo70XLeRHCvgfpGHsrDH/NOsKWpfeoYWQEz+sXD5N/zsf7I+Po+g8tMtRvoCmH34Dcj1CYVnUW56ovxsarA3GceTx7qOlA7pmFvHbXJC6f2Js1lQpZLy6EuuS/Cbrsi+Ehpyj4/gos0x7DgVWHSHHDPw3eN2TNtKM09fVT2F55D69W3qb/HuXQiio/YVCaCR25kQRjT2hgZ/ElCtPshluTewM+7kNlZcM4NMUYcrR6g5arBuX6ZXLI8lEwb38yeRyIFs0r3WlEkiu7/FmOBb8KqfJFE4Y0qAhqWxPYbbcT3jQ7wrnRTdRgFg5ednaYtipB8qDwOFYtr4WvaY+o+5k0Rkd/g49aZ7lsr3Jl3c8i4drXayB0dEmWQKnNi66L0H/hMnoYasP3Iq5XPPXKxsxoZ44v9Sbfhx3CxJLVEHLrDn3iMrIY8BCyolXR+/1MCnf9BWWy0vjkYhX97aOPZ7dHYnSeAsQ/luC1sQlgseQ2/FkyEW64PYFF90zYd3YxjJcey+t9CmH3mIOc4GrPq+5bkIf2amHAiQN4s/stf52owVqbXrPd1HharCDQuSO/uEzWAOJvvuZW82aS2XmDzN+mwgqnHLy4YSu7REwWeu0t42UZuhSj/rGiPTQSrKVug2s/V27sa87Z6zew5xUrWnXbHqsSdfm08US0TXvCR2fMJxD/ip/tp+KU/bZoqHWGPheeBEfj6TxxTjGm7BqJG737sVHoSFwxyoZ7Bp2GKKN57CSORukoG0rMn0pOi6xIp0UXbWZMEEcv2EedjybggbuV7HOvmL5LXtP3k44Q82geD7aOpa/NUZywchLrX/ooDogIola/zeLT/9owxMyQtPRySHPYb1q+1hLXpR+ntBVVtDbKweb+c180yzoLhid28GZra1pwSQpbrRLIy2QxJtlHcMVpfWzf20mrH12neWHLWdE5VLhR2ync66zBgkMB2FLsQTLvP/KCjyOEVeGJ4Jl4nsyCdSCj6AMd7d+XB85ZBoUbemNy+Bqe+2YY1CYP59cfovFtnwyOipbi6rJ5HPWk9h+zH6bJSTFwZugxGJTXTTeXRoG18QycNiUEEzfM5V0bXUjm2imuXrGWHhSqoP2gSdCjcgEqLj6HEziCdnjVw91FeiSZU0PeZavY/qEzGXxWw5w/e9jxazlBTgGfzzxDy/fcotefEtHE0pau1rSRTlcU+q70heFJfXDkxii+ca0Lp9xPo3T3ZusBa6Zx9QlEa/2HZHRvMH88PZOXfmfa0z+cfb+X0pt1eZyokAMpbevg97B80BqWChPa0oWkoH1UukCNVVOuCe1SJBivCGe9BT3xadxYbGZnSjWK+3dzM6y4KWW7NOjfjlGKfFg+QSxU28ParZbopVlCK6Z+FsUnX8XsLV+FsN9voK7IjgVFFTzhvxntHGbw+H1e+GTUYZpwfAk+SO4thDY1CXvah2NkUU9xZFwiX/NvhrcZ7hS5p1kY4X0bZ0k8cPMaDUqoOcszLBw4+K8/h3UEU+3sX0L/U4rYZW1PkfbrUdE6Dh2rC9lF3oBrNhjg6cuKeMZVi5/eNyOZ+Xl8uXkTLjs3lK8GWggYfobNJ+5GrQMp0FEsxfJ/t2FdlAnkTo6GlfMuw+n8UonR1PM8MvUjnzMcjs6283j8+x50RWsgui/U4r8y7mzRPYa2vN1KqTpzuGajNkKiK63qXSTUmVzFimuJkodbWqBYchAXOExGv1ApWuUkw8u3muHTbSfogt118dO3I7SucB4cTDsEO7YJbKhZIjT7bsJ3U1ajUnYxu67LAuvUleQXZI4uLU2wapcRZ+fIidMqtqNVpgDbt84ROxArZq+fw1cbPtHI92/EifkSSjckGCIXUpE+ejKbrrWgxbMfgEJSMtzavRkt/Ttg3r56cpxxlnefKKLnHTnw4vlEPluwt6IluYUuGvXjUzb64LwyFuxTH9Gpud2gaJSI49TD+dQ3ZcrMGkMdjRo8dmE81367KZYHPUD9HnPJa4ECG2xvZbm1hVz+eBiOW5YNl70jcJlNBHarG3Dt5tMkFjvjGq8KeDDzKoD2XxyRV0lR3vH/fqyAjJcfEuLUM6khOgJ+2xtwQslp9vnliSajnelx0UuaeUuBFS4NwPshp/DZtg5qP92Li8us8NqoVCFlWThLui9BaWICH99ri37zZ5Lanzw44jqJXhyvAsfXQ/CHYx5R+xZueS/PKZW6vKyzF2/a/gsWbUiueFAkS4urBomjP7pwUeku7DGMIesKM4ek8e6hm3nvgXC8/FsKG2b15RGFJ0CpSeDQ4/t4vkoCNqQtR6cxV9DZxQgPljZQQacfJwyWIo/mUkqPD8FO74tQn6aKu8MX4aFLF6CggWDbuCKhwd0Pyh0r0LMxjdfQP9+ftJTDRq1An00beOGCZNBa20pu7ufxg+kP8o+ehOsuBPFZkxNsEXwYH6tGc66bJXwqLQFdgwdsejqZPjS2oo5fs7hDs4jOPpTn9+0nSKfSmefllULJqkis/+6DvT6VC+4J9qRkFYt9g47Q11nRoKjfS7ysPpx0l8rCMav3FQdvlcAexTO8fsVkHD7+MS2+dlZwu7yPfc2vQOdx14ra6jvQD6NJtfU/MPBJxeroBFCqHg4DPO6Dc4Q8fuxqpL/x1aLu0mms5OhW4eAkBVMb/0K+6ary8BVSOLjADKv/5vN4JXMbTadYzjtH6GIUJ35R7ST30Avw0EDLtt7clfQ2xggxfk8gMHwvRgX960YqapUqXzVgyACCsSsOYb/Bz6lSyhoNO1zRI2QnR1dpQU3mFlHaaoHQ6L6POmQnirsaBGjdMxy9rmzD6IggPt+9CVfq6OB+dVUc4i2Na029WL9aDjWafoDSi3BS3arDEWn54sbyueLtQkOU6jMENxYDBFsV4uLXJhhQ+QKMyq7Ar0f9Ocd7IUvkusXKb+dootwONDevF04PeUylD6dztXkXnvftU5GhXwh/dhzltqWyOCHzEzxbd4iF/fsp63oosvtEdLpSw5pqqVR28ymkzxRFSVATDMhlakrL4t2brtNbvXz+bCPCL0ksSXMQfz5/EJe9jEZnI392ntQO3eo78ITOXhobXyW41x6kz/U2nBJswous4lBufRyNK74HV191iUs8DPnmURWSa1bi70r9ONVNXTggmwVZKW30drmp7fGhAfxtUQT0dXjBx07NxP6PW8UPHg8rXsTL0IgfpmzxuTcERzaRUvt1nOAYgZClQeU/HPDFhBJhkTCP05uP/5vvgPNDB3NQVwpcj1KGO9tLQNl6BbwX1Pmj62xO/7KM/ezbMKyrH6VYbsXrP9MgZ+93eidvTtO8r4spniHCnpHHcb1KFo3y+0LrpwexzDxfDPjZhIoT7oueifth63ElLJm9mla/zeBf13rhixnPKbirB2rrKOHjfb4gaS2jE20awv1ABZT7kcKKKx0xtaCdrB/WiTFzBTY2DQW5qkpaNjmDknE2+PkYouZvc3LYu5GPOW+Fc+2bKW9upBj424iV4835epOu5ILnIZTJXcTZ862F9CgfNnBxZRUtVUElzxqLBo2wGRf0GebfT4BptJi+e0XiAplhfCe1TFQZtwS1th1BqSU5bFgyAnt+XUsLiirQ96MGFj7Sw19GN6jEa1iFjO98GGizDxZI5eP+y1/I7csMXtQcTnN0ZlPktyUS/YUTcP2j3vy9dCD93qQsJB/0xLtDDp3Xd+2kDst00BRq+G7rQ1HjZy0tj7HECXeyaU17Iu7f+YGWtN2mRtGbHDzOw1EdT3zmXkg/t2Ziu6k67NzeJS5gYyz20Oa3fx7jMr1Q/uOuKr4c8kao3KgF9u4xkroIFzabeBlsZ8pCXPoaXrftCQW+zqXYrlC+smAUmzuymGF8An8OGYQNmx5UtDVJYdTkofiIZCufyTug+4ITuD1lFreo7MI3VgnskyyP6rZqfEBWk+3WX4Bh2gtxpMlXSPLTBKj04rRDd8hNbhzuvPlJsu7wAFT6+xz6nRmOW8/HS97ZxaDZHBUs8W8Ht4jTOPzBXq6Zpg9zLqTBiOPSyLt68kllCwpPH4D2dyvh5m533Bg6CT8P+QRKCaHYUFIj5A1S5KwZqjzpfaikOD0M5LqrcWy3Ar1JsEHjm4XUVws41lAKn1sboX9mM7iaO+KIqFZ4Wz2g8sKeXuyyoEX8fKyGh888SFe294Ox8o44cmQ+ty0MRpNRnuiSYMqv+rdgsf4UvvygkWLvmHPVvaGkNDmIerYOYhmzU5h1yZQ3eyAeTZTimKNDcev8LwArlHFFOmBkW5toWn8Kbqef5qUfYym19wzSbpJGa9uprGnniFiXTSG76wXN+B2QnJXHc/LnsptvNo27ZytskiHePn4R+nzbg0c0prDR6L0cGhhFBp0dYvq0cfRzzQtxkX8DTIrZLY62CzwfaXCFz69U59xKNaGv/2phtJ40x18djDZzbcnc5jroSGRRp48sDEmQZb2CTOwVuhjbG+TEnKEa1MexHpc5tMOs0DswurRWsF31BnwPy7DLRHPsYdeN4zWvw5CXOuLlmEBq6Izh0aZId057iDE+3aJNfG+8rhogtjsZ8+JHL6hxagRfGJ7Il2R/Uc2ll0KU3XOSkfXkh3+CRV4yGt+adeEQlU+kF5jB+SqTxMkvDEXNTeqQN/27KDX1gGC6UI2/bfpFUZ4P8Vj+v7zMaIOjS0YhtjnjhNAaLOqeWHEwJp7K9TPQ95Se+PymCX9YWEBjhm2EhPst0KdgHD+eV4MbMr6Qv90sPHsyna2KNFkl8QDEvhKhWycARwb1h9uxozGk+l8leBHHHmnVtC2+Eo13I7RceApvrS5inHQGXHh2BxSS82DuqRGk32YHP5uuiE+OzwRnzY9gsDYZ9D3uwZLzmrinz5SKQV+LaZmZBN8p/McPEwL5h1ISZOd3wKeGVmHMusv8y/a5+EzXA7bLD8K14iThgd5xIVLlDMVNW4MDdzynnf8p8gmshZG9erKhxQ5hzDY9fO7gziYhiMZxIfxuyw4e925ApZ5UGH9pbGK94dZQGBBF62KP4pgJ03i2JJbLekn4gGIN2KsOxF49P5Z77hvE72KbeWNLNg9t/4Y1M8+ilVkHpCQewJU/NfCz8wFoPiyPTva1dOyPJ++/uQ3TrimCkfdqei4fSvdkp7NvzgCYsX6/cCNuKPdMaKC2wl/CxvuqlBjYn4c53hTT1d9x7f1rYJy7g4KfxuLmq4ooteursMKhUcjKHo7CGRHE9f3Z92CdOGGoJztfECu2rbPCmc5qdHBAmChsTGb5sYfwh+wxcJ0fifdlvorD+9bCw1Z7ITfdgZz+9URPnclsbdCILZ7jiT+MEMf0rYftJ37CDd2rFTPKw2HzoE7odTOmwm2IB0YdtGDnqN/QkvQZA+O9MOaAfKVz0T9W9vHAyz5FLCzSwiVXorDHizQ+SxPBeVoL3B11Udw2tZQznO4IenI5dMhsHKTO7lHZw8uWc/fcpqWyHigon8YPyVuYiwp4tmcztMT1gF/XtVlO7jn5ZWjgkXYF/uWvACNaq+jWPw+w6lcDN2IFPi0lIa2FA8C8zxTY2GCJuQcaK4YZ59LBNltYM2Y4Z46Srpz65rhQ3lolXL3rjyWPZfiG/A+hRfso+T5wYI/vdeA9UJ71T/ryAxMJ8J3vEvfZqzCoOoifdd2jsUsDuWBklST3UwKXBMiwo5cRLtEs5GmOyvhJSwavrd9KmkPd8OG//Nh8aDuFWBzh4TkH+bGePGxzWwgTFXewX9cAvKqSTnsmn6LW/3bD98UhwtDK/8h0oRy9jguAPzO1eEbnFLhlawWF8+PZSUsTM6ROworVRZIa7ZXC4qS91BooU/l7xwcYuPsuqcmk4cqYg2DRESDWP96FQwpOclyCIq+x1cOd8AId6ux4r08S9Z5oZfv1Qk+ecc+F7APVeID9W+HasTaIWeILbq33xNyAMMr2nIapOkF8bpG0bdDfHMHi4FJwcqoV1F+mstyIo3h7mhGZvIrBL10ewp7jiqisXIbKNl/o3E5vLNzZozLcbzNqtJTRtgmWuMe4FT7ZxsNv90HU5RrJCzVWwKU3s7lHeQS+mT4CB7vo0n79jWw3NU3cqLEV7bYWVcQfLKGM2lvUtSSedE9a4YVMPR5d7YGfc3vy8qSdtPtjkqDm+I6Cz0by4+23wXmwvXBX6C04ngngxoqv4gzVQ5j9KQiv6dhg0nSkrF7PwejYe8Gj/rpwc9RfKKlfLC4/bMiRvyJEn/y3YHanH+/yqyXRbS4ED5mJKasd6Fp9mBg1T4ldf+3k/KWm+GiNFpeZ/bZpndkDTFaNZu0odYa2XzChWxlHHUuCJ/XyHPAKUHLXR6hT6BZDpmzAO/uVeJG2FJYbjKb7Zx6DfOMeVu66QYoUiZone6LGcy8hq2U0BsgW8OqTSFXfsyW/ZTcJTp+DuPHPVH4z9iT4qYu08GoGv64YjC532umNrhTub23BU8NCKSQwD99+FlkxShcfjffEwyqT8eKHHiC9bz/bJzfRXBUVVnkdI0Q/yICZ/10Ur9RsgaxXYXAj+Al6RUlzcHc5zr+xFw1WR+JV9xTY+F0FM7ZYcnHwH7Fd7BS2ze7Hdevn4pOweeyfNI0nzj1Km+9Z8+G21UJPy32oV9+MY9VfkM9xVw5WThPeF9pAufdZePBHGkwG6PKnNYWUZPePn18V4IhQhYqTdQ9IW1UDO7evgPw5Wlh+bzKP3mnKR8/Vgf35cjppNYSO3fhGvT1640KVOVQVpECrLhrCKK0kcFpjye2BA/DM/EFYM8pXrDRWg0FPq0Fc3kRfZr+jdB3pyrDecXinvVlo/1HBFpPTaK3LVtyybB9kLv4iHKs6zMmLrqK0gwlHKSXDwD7z2XhZKJyYdUw8L/cZNml8lfhvCcLEMQZc+kqL/Vf7cNwiGVqinAGP6jx4bIKCaLQvg23MjvCgu04k4+LN33f+leSuW40dn9vp1MLp3NX4oSIh4B6v15nD5q/yMX1zKg6eJs2aN47h93+6fN/0z8uU3tDCit28uqEOlaTCyFEhmXXOB2NdTQQcGZdJXcefwTb3BlzyJ5g1BwHMmNuHs7i+4uGqW+yUvojvdqVgmlMPjijrxeP0ymnM63qafPif17eu4nlHfZnSh4ohll446UEWjZM5TNIz1HG2WpQQIipiwMLxOE7WhAKeBHOIVgJ43mmjnf5fJCuTlPBV8jI8E50n9C4+A8PLzwtfRr8WV05U5c3KdbShzx60KtnCBaYWaDfJEjPEVK7rrBN+vHtJfSMJNvV5hJ/22mKavCLnDz2Guw8G0+Br2qx9dySP94/B7l6lkKYcjag/GL36nyHxjxreMCjj3PI3wkif8XyCj5DZjnE8XnUfZp2cBV21w+DtLF1xuc8w3ljeg4O2GmOpQyC33tfhgj+NEO5TxYNPyHD17xkYez4WSuvXYg3mg6mGOtROWIqm5f5oL32JfIKv0gf9/myVu5LDH8lhz+cjwOVdL2xSS+aeF0dKDn/x5WglU1R4OJOuPTDBKUtaIeOrAo9JjMNYiQJ++5vNciOz2CV+tPA/UEsDBBQAAAAIAAAAIQDvnkdtVQEAAIABAAARABQAcG9saWN5LjAuYmlhcy5ucHkBABAAgAEAAAAAAABVAQAAAAAAAJvsF+obEMnIUMZQrZ6SWpxcpG6loG6TZqKuo6Cell9UUpSYF59flJIKEndLzClOBYoXZyQWpAL5GmYmOpo6CrUK5AOuPefdrNcFNu45lp1p8/3uPZtV32Vt9sbu36u3eqn1vKB/VpmlV22ibwXbatvI2ur+1Lbmee9ge8B4n7WN+zUbdov1e3beFt7LtvLYrnndKntCtUT2zmt/Z2OR5LQngIl7d/3xiD0OFe17mXa9sVlTaGLz2UxoL+8Wt71/ZQ33mM9ZZOOw67x1dar4ngn+i/faTk/fE3vq8Z6ZWy7vvj3z6p6yypo9d9ry93rMO2j9atVLmzpDNtu/pQl7ZjSz2EgtrtwTlWu8d8rDZXtWWdzb/k4j1eby3s7dv0Nn2mivYbSd8Gv+3vvhZnuvpO+w/hVgs/d6kPneM0/f7REP+WtdeGD9nm6xrbafNcz3rrbdYA0AUEsDBBQAAAAIAAAAIQDxuhJiojsAAIBAAAATABQAcG9saWN5LjEud2VpZ2h0Lm5weQEAEACAQAAAAAAAAKI7AAAAAAAAnJj3I5ff+8fJKnuXkaSQmTSI+1wvQkXGW6mUSKWiRZKkyMjeohQZUUIhI+s+10s0RElGNDSkFKWhQSXfPv/C9/x2rp+uc851Xc/H85yyX2/33yZeHn+eY5oeOw/t8NU0UdVkdi3R1FXV3OXt6+e77cBWb1+Pnf+Lr9y279DOf/FDntt8dv7bL1i2RFd12RItXdUg1f/nEjawS4AOfh6QOB8K9QXNUPf2G84p+kVGXt3D5pWGzHuXu9Q+Ogk9nBluxzFK2txY6FCuoYFdl5gnc18Si0t28P3XRYiSFYDZHQfhcfRG2v0ujdroUcJ83QYjR/6jQ2ayrE+KPz3L28gKSgSQqZWvyKj3cnS7kInrsjZC5PNVUNwURWUyk/FW8G3C1SSQGhoDdUFLILRsGvFRiwQn3UfMZ1NC7G2HYNOMc7COkecUJZw3Ba0ULBX/w257/Adyp19Bo9g7cLKoCx+lMvhf8kd8Ex3I7uI9RFeqnMQnLxRR+sEoqG1djSpi28j87yqMybX1aOkRCT8jeDmin86CgnkYsU0/yF7/ugWme+fTyOJPtKlUE1YKb8BNB//QM/ovyPIr9UT4F4Wquw9YTnstyfTVwetrd8Be81Z2y+Ie031KGmDmvACqc1NYbdEkclZWlwjnmaBxIh+nTn4UFLMSQLvuP9h1vpUOjshRv1IFQg82oFbpLPJmwRmi1S0Bx3P1yfN9V8jGqzMZW8FEqv3iPnEMCCK+tStJ08AauPQyEv4sc8cvwU00zkoFdW7qYtSwKP469xTSsxOxrCYHLqbEwF4HLSw6/BozA1rpMdu9aL7HAqZdvwPCG8W4hj3zMfbqXkwb8iQig0VsdSsFuVOhuK7vC1U3l4ACASE4TGqppvQsWFzagFsuinCWKy1Aoa1b6J5zx2Hrh4cgf3c/FVgaBR+3zyaflhXBkr15WJQVg/fK+aBJKxXdPrqC/d6ncN1RiSbP78R9DyVx/bwD8HmrCy7QWUZLbc/Bpm2/6GsHT/ri9NqG0t3LUE1qFR43bKW+V/eBqs0svBxlDLsMjhC/w6pU3D8dFgidxBuHxMDqqCmHp8wT28c/Y/OyPewOfU2MbhxgxC2OwbPUkxAU6g1rx4qJyNdQPBu7w3SUcwrurZoHLRV7KGfNRugoWQd8R7LpYZ3rEC1wFBSjCNd/0pl63Asna6SESbcBD3cLG4HpPEKcGlUtDDjTQbXLH7IeSRQKPNSw8kQgZgjygqE5g/JfpsPRgX0ID4ygUWAEXhXYQbyIMP6ynYXzunLpttHZpC7sDDpXqsAwfwzoaCjjHc+whqgHH5GRMkaly5UQx52NWiMFsHv+YixIvk68f9fRI68tqGlhC3X/fJqezjGAz39bMeu2G+o9mskV3XgWOoL5OYdeH0PfckCPd+GAOztwmD8XMkvEoaDYCNde04CcjuqGo7bu0M0zDex8QvHZsyJSPvaBDC193ZD4mgW98BMEk7ahR1cWhPLthOhtY5R2WGLHpCjIHSsw7bE9QJ/9sUc5HiMc2dtEtE7NR3lWFEd9rKjgpWfUyqYUmKwYktSvj+a8AZge1YW635VwFSsDZ0rtyIhHETxdewaFhuXgRfsHJqE/DRxPPcUVO2yI6uH/oOjLT5Jho4FVwg5gdyC13tlRjpzOOk+/9+0Gb+FycjU3E0IYb5PkXbLwabYUp2pVHJRy+DEutxkGdxBub60jI/HrD1gGq2DNyG/av7MVRnricP3FK5BUvAvWmuxDS1d7CC95a/L71EeI1Z+BqXPTYfb5LNqikm76aHyKpCoLwObUItQSfElV9A5DVlARFidwiNkbN0yTq2Va9BRBIkEfBZlwms83Ag+mc2ld1HYwG8ojti7tDYs2JBJd97WQle2MCaZCdHy/K5aG5TPbDsaTsdXF5EXELOB7NxcdFFbgQp2f9M3tQhA8vQUKJJ1BPMAEr3yUIo4n6+l+fTVQWqOIPJuSscvfGCP7fuADcy7N8XckjM0F9LLzwbue58mvh4MYrNLAVvO9Jt0XH7DqZ6fTRGMdvPJKAbZ9HKN/Ne5QViKMplel4GP77bhlYSoIQwu0vTJgHDRFOC+TuxljRyXYK5KHff9JweDunTgseZZKCQzCZjtD1DI1RJsdXaSxo7RBzmoOXXjBDDULE0hhfT64ZhWTJ7N1uKLW60Dpexrz5/sU0RPOg5ZRqYbF3xXgm40xxKQrQNQVQ0j7sIs8XimLx3X2kbx137CI9w1tEashdTs14fkpPui58K9uTbPAof1xw+vLc2H0YDH818gHJwtV2MlTYRh4g+EGlz6h9u5VdHHMWSwdNIDgthR4scoKP5vV4sctv9jrH2MgJO8yZn9XxsQFWfC24BzT97cSk5+LQdrVVbRuZg/js9kYbNTEydXeZXjlWT792NxLdrxIhnGDD9SpTB897p7DfK3F3CvmAiB+Og5G+0NgoEQZ9eMj2OvOBfCnPQpDB2Ng8udL0oXPmdSSCExljKjm/jLqpy+B84wjifnIWUxfZo+vjfYQqWJL/FhUy7qJbUepkGF49t4NdAKXE5Xa+2SSFSSfRs+QR+2ysGjXbfJh1As11Rjcu3kumuZPR59Lhqz230iseHEbpH314Mu6QPjwXoRbv6EF9hzKhFnEHgc03WDG2b0w6XsFFvq8Y/bkrYEdJXKY8H4hppfZoj0jyznOXUYJsSTnGh/C08a7zPfrJlTukxGe5WOpxpLZuPQKxdR4MVzu0U79+TKo0f0S3MZnjG0FyfD4iiEePPMYJr17ybZtESC7/xZ+NjkFVeXamH1VGUcGedj13b1UxMYaZL4upXYpF0EupJON9VsJ/6XI4UeJaYS5/E83t6rhhcAZEC1TwbRm3cKvhYfhsvsn6vxlN/DJTYe2lsO48Rw/V7OZw4m7sg/DzU7DsEYUPhl4Dm2B3uRuhwNMUTHUmLed9qzJgQ3pVfV85r+I3kc9lOiqhonVdxn/QVWYSprJffHKAqMUjrGvs+ZRsToVXChRBLmlFSC9MAFeBp4E59oaOKhyk5y+sJUGuMfDp/fzMfcff1RJRtDkWiVY3AeYPnURC6AazyoSfD2mhcN7crFLMppqRKujyzpt3KU3g5T/MSBCK5tIUq8SZwGvGN5rv0ifOS2Et1l/Se3DMKr1kAtF1g3oaP2FGvjdJHKRrTT8ajD03XlMs0+qcHLaWhF/mKEax5/utDqLxU/m4YUsP+gdyqRpDjdwfnEv7VsynyZtzScpiQmY1TgDx/aH0g9t4eCSkorZziUYOCcSve8/ogd6OoGvfJDhWkjAwPcbbHfbAIE/keC84jp1DG0Bl7lcqlVwg/E8rgqJq9wx5JojSoocpksdglE1eBqsL0vCgII6MNzxCqsUYlFdawSCJJdD40FPeO8fTLwGcnHnx+3gqzUKB22FuaK8qeTuFlOsS1Gk9hICcFioBk6KXzF5qT8d10Umk7Hfz6l1+xwaqDxIE+dbYMDWhyB2LZ3WbjKCUPISe1sTGy6J2eGfb8YwU8sWLxwehM4/SujuXwB2b5yJX9wHODHVSd6vbmUjXfrJ9fERdlgiDOJ6dhODU0mYczsC1eVz0JGuw79mviD6Ghhx0SHaOLYe3ObI0WxpW9Z5pgTkr+mn1TwtsHbWclx37RrJagvCniAVMPqai5dXFKPq8yE4m20AhXYU9/+Zjin96nA53Acu/+stU6skdiooByusOuiBRZ1U86AkLRK6TRW3LcTUFctRiG87LB1byZlasRLemfBzvhhKwzffOw12GUfJT21B7umMGOpwz4ls0LhEXz8bo0Om50hGnAk8/HaLHp05g4RQwsor9VP+9AQoUl6Ny3l66V71rPqEPWXkbdFdnFmiiTdq/PC55yt41XmQ2B5S5IQE6mLcLRtc+sUb9G/dZFccMCXD/cZQWWWBQ4L52GKVB/E+29BSbhZNv78LZizTgTu3N8HN2EJoe/ubFMYJw5HWWVRjuxPc7fqKD59Yosq+31TrxzESPuSEr4ef4szK/ehUuJ/e5yFwi42GIo81UIWf6mp03CHm0FPi9+IkdJ10IlbeB4FXfBl95b4Ti4IIZ2lVDNZxAeY3HoLyeguoJi8bchV/MKOOcrjj/npydDYfekgrQAS6kaRnEiBz7gmz4mkKG/PSGtxPVcHPr4W460UqeJ+OgifVjdBbaopWBdpQeakLSVg0pss/ooJ+e+gdPQ3IdTTmcv9Ek+hqPbZiSy7sHzDgzBk6B5U7bOhBcR3QeOFPw2Ulud7jpfijnSGp12zJoZZK6mNxEKp2FYF3pwku1hBCBYnrDUXsXRCefID2/pFklsxrUp6XySy+54x9zdEovGg7UX38Ejy/JtPXy3pBZtIJzZ/9R5dsF4e7b++Sod9O5Nvvnzjv0lJ83aVHXGUqYKuLFLb05OLT/SHAHbJmZYqbYY8qxdWXoliZZeFUyGwvHbB/wXxUNcWXdcOmBgmr/nG5Ldx4fhCcImzI4ZoUnPXiGNpNtuLMPEMS2HoOFp9XJLFePlS98g2N+D4NatesBLFhC5jtsh/083g5wes92Le1Ekyo9wy8zyTg/vV5eDcnD9XkU8maDBvsn3kFnHXKcMvtBDLteSOpLYkiUy9P0zKDq8zd2VKw1VWCuodqYk2vH9z2jYD7MaU4rXc5pHWX4GGeS+T0wVoqWjEH82pFuIWVc6i8bYlpZLAzWCiEsM83LiCRaZuxjX83CD1IJ/lPlFBK9yK945mPe9Z9p78+ZKKO826onl1Ohb6rQv1QOoxxK5hcUUMI5MmhbhEH2D+6JTTwSCGzp2Yhy3PqAWue9Ye8nyUMna434PBPf9Lymh910sTx3gNpVFw3Bb4Lj8LnkX56asZbej5/Kw30O4MbpxiwXdSKE5cncEq9h31u3wbSpbVgv1uXm6A2CDpbGeSpP4XLnGS4z17HwX8PjxHdlHTsjb4GfflB8GxPH3wcm40XZu2A/VP86D7oD3+3dlLT6G0k7Pd7uCyrSprLZsPV8y9pR2kNrdAOQim5JSARZo6Mhxs3cMc+silvFhFr9IHVVp9pm8B+UiNRR4SEOojAsqdEWUmBhBy8Q1evc0Guqz2dm7AaooTK8ESiMsr+Y41H74SAb/dLjImvppfqKAY5tsNhwxWwqj4EbtrdAc2v2bT+bjL17RHH3aX6bPNtAU6gRmyD0O/TdI/ADOhwuwlbvNXg7KF35P5MIWgp2kBXqx0ByXAxDBR1gYGNHBDYdwUnlS7gwmoePHNqillS9BvTl3fi2g1v4cWBL3TVUAR9HK7MERrzYK9HXiAV1dbwKu0PEV5xHY6ophDDgzHoweRQ7aitUBVwjZpOLSI8rzaA6gohGLvxAa+d7kAz24s4t1qJePQ9ZGWOKEOK0QlSbPed/eG4CD4O7IOaboJ7ZxTSoGEj7o/pC8C87TF1aDJCFRWAiDMP8ObFQ8CWzP+XozAGalbTkwNzwO/4Kqr2MRmazb8xg9GR2P24Bj4UhDYkiPnA0iUynARDPtxjyNATFv0koL8chQ69A9aSn/szdy10fCnHE8dCqew8XtwbOwRjO+LI4FQ9JI/yYVlgBDYf/4/x85qGS15hfW7zEhjSEAbdwDKo/fqQivpWw2LrdDCZuYBjuSmSjj6PQJsluSx3szQI//O1e7/OB4UfvKgfcJE9s+cNXSdxE5/OjMZNUSuZTZPrweXOZbJO+Bj2+jYQ75Z5nDXTEmhA8BJ2vVIGQvR07sRRSizPXoI1sjrw7HwXefJeBNX3B8GEXiCNGQ+FOcmqmK9ykb6JyG3wLt8E20/8oI6zjuHhM4N0TuVphjpNY+r3SOGdPjvk4RHnnhzhcDbZG+O+xCdw3/k66npqExZ0ILNGAng8ZqHN9weQsv4GLZ8rRpavLAKj8XBsnqsF/m/n4ZGwMhhQUoJ9XAtoKBxnDg98Br7Mj9Tq0jPQ3ueIwvzPTJY1igMTbg+B17rwsp09zF3qDQfGQqiNqzq3Q3Yac6TMHEceG4DcL2/Y7TgHrts+pb8vKUO0SyqusGoCYeurUNq7By5GDUDWWC6IBs8nMQc86GQqL/f+pfeYEruLtB7LR0/rGnwzL4qOazeAzrGLZOmPePgw9zkYHo8lva8kOb7mryH5zSx4r/+ITh9PAOM3U8zdy7lU4sU38kOXDx98i4K/ZV9JeekjmG/4ANfwTOf0fmOo74zraPTsA3nqHQKt2qNsoOF8XLvXGfaHNkB5/A3wF6mDnyVb8XjAbuz20gGPuRfAcn8KfnAYo6OsOLdrXj8OyepCpnQ4PBZpI9bB39jp0uGYWHwDP9p3mU5ZTOO8rdlMk2xTYd7Eabz3t4OdI+5F+Tadh2HNF7j5vDIWfIqG4gcXIPGaE+UIV4F+z0WieigL+1Zok62ioYRP9zq5/XEv8v4Jwm/2fXXG5U+gY/wZTWlgcf58fXwpI06LRH3xloAxrNa6QRflOdKbFf1E9GIluTE+h6n1NCaVDSVU5a0tSrTvofL/2WAAcYOg/eNwVEGDUVlXju4v1oPTHRPcbT9FPSJ3wHENfhx4F4kvvxsyoTxlYDFXGfTd51Hh77X0zdBJ1mvfWaLq0UzUOlwx9MUKeC/ZBAazE/HdocPA92IxHNJ1psHBv7EOsnF1pQiKj0vjNisZ+PD6OLglz+B+riT01Yk8LOo7CoWx4TRxQgE9z7TghzmTtPpSGcnWTwLFddPIjmYNyryaoMfVnqDBUDTOmxaDqS2DWCAXhWNO6hzp2FvM84rX9LrxHnCdjIeZqwvID7e5xLBBj5v+UobUOJnBNlsNSAwT47jv4OGu6+kiygc18fsVGTy5agb37hsGGq5y4GN4B9wpe0Su586mSxYaoF3EGbpifB5ePXeX3fDZGt8XK6C6DSD4xMDR4D805u0cKOOJh6jwLnbuDCnOfxIWsNM+Fl6NNSCf400i+fAV6NcG0fI9H1Dwk4pp/K1JaqS9jex17WJzTIuI+vfHdCpGA6+tOQKOaYAHtASY9F3RuHjnFGiTNNBvUYcpNgiDRk2gRHgTVdjjQPLzNNG93AhaD6VjmF0m/vmzE7ZWFsB+uQzWxl2G2+B3mV6G32ThVCIozVZFoW+8nGqxPcRfLYhUOS+AzzoWCC8icXR9A2TelUWeP9O5r+SNkXtlGueK4A0Uixpm9b0kYHHdS+J71wFjM74zau5v6VHPl0SowYSWTqbB051v6KihOnisP0oHmhQgU2U9BgcrsCcDDdnJn+ao9/YanAs9Qg7lC5GiVTfJXNVtyKMlCvp+n3DruevwVHQbuZglzkl3uAS9h7ewbzib8MPPz8T40QVUzewiv0OU8a69YYPpUCNd1cmDFh6F+KFMjeNy0JWaN9mhof18ZvHb8+Bf/JS+iN/R0PnlN5P3uBkGa28S7sMLuCXcGrrSH5Da1bFI45LoFqFmkB8ToOKrY8j8wBSI33sUihZGQu1wN3ENSwXNh1XE1TwTPhl/IArZ+jhR3wrCTDMt9eWCnVMCbNg3Hzy8eminsjY1d82jt+VmY39/O/a8KYbBHZF01aJBWBDHxbat2vBeoY8uFGrHAnVPMhT9lc4d+ECle8zpn+XGOGZegb8KCDh026Le/FsYNkuM3ppRxuSVnsMim0W0KMgK1pdrQd9BbXBsrwWn4S/kywZxdNkkjGYOe6DDRxxK7i5C0avPqYIBP8qI1pNxexEcfP6QLX+kSa1eZxNFMxfMO70bKypTsc9jJ4jaXMLtXrb4NMAYX65oAq3XUugmIY/uQgtBip6DHC9pcOtU4hp6sYTTmsx6HNGE7rB0ojFxnly04gFd3R7M4DxnV1/4RAb1OsHZThQmluwni/1DYYtbI+73SYOF/bPpIeYs8epjSEMmP43TzoLLZo/o7yh+LNhznvHRXsItvJIIsvwDOMuID8Nd/cC22BoeDNrjcM8Mjjyfzj/tv0X/fnnLZv19TRcOZ6PPhzBQKjUFTY9iKlQ0hGU+IWTahQyYeBAO9QnLwUJPlOMn3UjOu8RA/uUyPB0dj5MKW6Fw1L1eza0IlHIvg0u5NPeI5HKiuWWK+VZ/DnK7vlCpoJ0k6mojPRGoCKfACWTnZ8CZlW64vLWc4W8E2PWNHwN+dsDgpQL6KKqQehReIJc9vfDw2nAslt9BxuIVqFvXLoxfUkDalaIxZKU2fjBdAJnPFrC3SibJ3+O6YGmtQ+iZX/RS0jecl7gZFH8Ygd+1jaibnw5GT56Q3LAcEi3vzeyo9wP8q4uNbn/p2S47WkbKiEh3JawSHyTsDTsQ4MvAdhDEAUVHxrHeCtdvrwS9U+3kt8YQ48TsxwU7wkBvjTtJUpPC2eKykGH2Ax9PfkGRtFF8nxVNz72bgFensmD/eh+UPjAbFaT1uIItqnj0wnVMbeTBv4uu0dqfi0n6DV/cFVxHQi4u4ZYZaVI/TjTMzEnG7zYzqXrzJdj1LhmGsg5hyZMGvH78GXmm9Rs0t8eBs5gGabCOoct2zaSNBQshfOY+SFfLxT5zGY6Iw0LSLLuAsMHH8MrVYXh6/DPdf5vglw+KdHieE/TU7AeLjZLcsulbYLOfNoh+WklF2uvZx2tc4MVZLskKMME6tzyaVqYIHQ2VrOa1fFybG8LU2JyErRckyc9NsvjnUyH7d6iSasE97CgrB+UXL8g753byyEkAm+9JQ1ntEap34CfUp1jix+FY/N5RUhdWHEG4X2Ixf9FF/L1KCDJOa2LwWBS4LF8M00osSXJJBGvBrcCHVmHwbctTsF5RCe0rxMi4bSDGuQqiw1xfMqm6n33nNBNGFL5R/dnemDIhhcMH1oGI0BoQ16uG9mn1jICcGHT0FDDd87Rwn18jqQjg4q/iBFRxiIdL+6qQ5+sFTFdaRHtXFeCThO9UZ9NZWBqlTAY8L9Gwb/Jgc1sUm36YcRtXcE3ZqY24onaImi44jz8XG8FlngGiraQHQqoPSUDPEJtx3YSTm/4GDk3Xo68EZzDP9jUhW2lN12jcgZbiMIyYPUkVbrlC19IOukqzFHVehmKePIE6K3fQd1LmSAikkWxdd1QJWkD0BD+RD/G5yNuTRhqXryMd787TyLln6Om9eWDn0gj187TI4n98nCtfR7dniHMU0iYwfM89Mms4F/NetpDSMAk6NFyLB9a3E5PzO+jo1yH28n/ldNdtefKuX5HbsEsW1PUi6TsNAyJuy8vpUbtGz+3PhB0bFqCw4VGQu+sO4pka8CDKEGr848nbsLWgIhaKBuYOGHcqlL2lXkFXToRBYsZNOt74hEm4Uk7V5hsyfYWluNnTCl92d9S1ZJaBzT0hOkdDGOO9WjEpMwKETJNh8Rwp0O65Bc4loXjojgLEaqShR1Qbs4JVpwuL+eDoeCGcidoNwv0PQU0+i9wNfLa89eZSSAMeot9syxEvLiKldatxJl8xeCa5kjWBN2DSdh05TlqYoxdcmPuRSnh0Tw5rEbgVuU8PgVJvEW49lMys4eRgyN56spWU4eF4e/ybfRp0P2ajl/ZB5lByNp6WBVCefw82h5pD4sEwTH/+gfDm3WiwMrKAYdlrYDd0HIX60+Cu1QSRadaFlN1LIHP5Q7xXNB1m/OvjbK2VNFkRuAd2SHLsvPlBrl4GfhlLc2fazsbvAuIMT9EMzqz7iqA1rROKM3/hfJOb1EZIlU5l+eCNg7543/A5RJkEE/HCffC5voedVDDGctdWqvu0jn4+9R/jy1cC/MbBnL1T3pj9JpSCwwwa9s6COGjo0eaWk/RCiQuIVj2Fo1BtumbdPfqE1wTn3YmAgdQ3DT8Gw/Cz+j4YSelArU0qqNRfRktfXwcXg0VULaSBPDF6TIKufiVeJzpIsroRW/PdDQfTbtDPFvr4sVOGY1SXQKeFNJORpU6wfLMDsK8q4GxBHUuflZDmB4lo/6yVdeqIIbzjH9kmiQQaf+8GpEZ9AuMNOaSq9Cf+bf3I7L5yH0h4M6pL9tLxQl62kF1GnJdVUuv4c2TxMVd6S2Y1GPqtAaW96fDofRoZTntL3RdNw23qa5Hbf4L2aWpwzT9lgfDmFqh6fpNunaFANvKfoeoFZdTvry9de/Qfzz5vIudEVtHYzyO077wejLyag8/mO9COdEfMi3fjLttYQuloG3rfLsJU1VmYeKIZ7BcuxOmDNSDtH4NRqzTx1NFqDNingnfWlZHk04fhv5ObYcAuD2UipzM6MYZ0wOI+PA7aDDW3eeHK1lnw8cBm2pj6H6gGV2O99SUi+miKjAcdh4NzL9DGY6mkrCWCup8qRKngelKk+QWebDhGm+910A9KL8nfKgHcnJtGLPxHUHEOH1Z4zIT5OaaYd6wGTdcthK83gmha8nXMfLoeHRYtx/rRVbQqTx/CcQrYw9X4ZSwVJNVfoPZuOYyU82O8steQkwkxWLMkkrm9LQG79bexnvraOFWuRxcICXG7f3Qy8fPdMDhmIUQ8qwMLLzNM+RuMOSjCCdpqheGN+vTR6TH65/sMeJi5jpi+bKBqEn8hM2Af9Ft5wVtzaTL3UwF0R8SyS3wzicrXcDQ4MEo5mx/Ruady0PrnHVw77S75+ncXDN44AOIS1eA4GkV3ewlSu9OezJtdYcjpVALBhQ/Bqeo38/XlcZKf8o85c0dwTVY5zlx5Gq58SGFOlTzG0ZkX4LLcD9baWoMTPxEOIbK+kP+vpq28pmPeKglMb2booJobLJ5uTG553SfJn17h15Q/5EBcD4x4CVP7sSnqNRoFhd2O8PduJ/mWoAtXBzJx09EkeKJhj+7+p/ArLWjQ91lEzwAfV+mtAGw+vhYu7Ua4PsMGXjnNBUnllSxj+xuzAiVx5JMeju0Nh75l6tzOyyX0sVMmNW78SmdsCAM4PIvrVa9X/+l0IXuLdwZXoGATPH3Ji4oq53Bi3Wz4E8xSS2VRars+Bo/HLcMLurfo68JppOofi7qbuZKuVgqSMXKQrrCZrkzZil0NEVSZexE3Ln9Cmn5vIHF/n4DIp/dM9tmX6NR9Aby7y1FQ5hxOddzDsqLz1PmLGVksII9HZnvBDHGW1snPpAUltiT5rDPy6Wax+3/b485j3pDdlg0Ba1Ig4GoevGv+g40/L6DzlClViTtDz81LhppXO+Bvniqd72OFEkON8Nr2EMwJcsI5v0yxY4c0XtudAt3X+bC8/R7DCVaitxaZYXhYBtnZsQv1F/Aw2hOiLL/tRVp1+DSVty8lsv7ZbHi+BMenSBT87Vdgl5QFyUhvYHm8hECv4CLO+MigefRlxkUigZzUXkIc1k0ypackUcErDA5ZKuPw+Vh6YVYN5OfspwfPFILePy/x9kIcrjHXoQMywaAoS6ji227Tyi3/wZPkM/SEohlwdBeRG/9JQG3tQ8qzY5KumTyFj4u3sJcDENbduMLM27AYzgduhc5UEe7cH/Npu58zhDzg4aZvG6UvucF45Vs59FrPgaBN/cQrxxulnxpwY16+pjs0HeETtw6a//kKh/GLJO0XP6Y69TIB8eLEeqsXvbZnMTrv0IJ3V+fiZmFlJmqhLQbt4sdmiXywyCsleq8SqeayfmyeHUHaVktgEp8NjlSO4qxRJzz8ZA5IZ04xLH2BWktqoGb7RpizXp7Lk3OfDR2coGZ/G4Ev6ytRaOiB6+OR7NiJNsh+aQ+jM10g7ucFKGyeBw027iBg4Ap+dddgbOZ8fP49EZUd/vdHcgNE2xNhIvcqeD9VJEsipGFrrxRtC4uFS5krcI9kKKnnVSPF4yEs2Kwg9oWz4SmV5fqYSVK+VlkcdS5Du6MVYF1zg/my/SrdfO8LudzykxZ76GJWaBm+8aykghLZqKSTjkuFo6hrUTVNP34TKt6pYMcJBh9W8MFkdzAkXzOEjeHNbK6lMe3bUIWLBudhdlw2dr+wgJAfY/i0YTEV92KwXLgO4u8FQNKUCpFSkETYFo+zZG7Q72uugnGmHPezUy9xEolEl4fhNCdflJ26/hO1L0RQsy1DMEnC4NfbfBRWTaSdJcLcBRlcLFmYDxt3u8Ky+QIg2ChFO59OmGaW8eB/U7lEkymgJ2angnoSP5Z0riNhMq9YVbXtWFcjyUm6mI8+Ki/os+xVeHjBUeyfmEFPHgjFm4eDYONpBiOkrRndMmnwVF0HymffYPygDg1NlIGdXfO4DxxyqXBBEx7zmke/66hxaoVNOVJ6u5FpDCV/+wkZ89hBXMREcdXHBKKdoY0Kk3KmZX48WJb6mth9MMHlXEDfVgOy6kwRkdTIaLip+Y7d9+AwdFfZUr2jcuBL0uDvjGLC77kWzJY6s309dnSCc58RdzSEu3FVqFi8Dn8PxMFNtTs09+keIt0xGz3TevDin/dk0W4ZqHKPYd7bLsG04A8Mo/8ASxYcBp8TD9GcmY6b6+zhXFgmO3uZMazuL2Sc7/iD8MPHDc8XiHAXnyvFhAs59M12b5Tyd4VsAzMUmvuUajZthV/h0fS5HAthZocZnrI7zO9kKYpZ90hlbRUxbc2g2UeOYvx3cUw2qsNN4xvpg7DbEOVmjCWVbUScuUJLF5yD8Z/p+Hu9Az1oIc3lpp8nGgGPUKM/kgZuV0ThI+dwcWQxjXs3Stqdw1DO7Qu93e8DRwceklhBSTwboAdVs0rptepOuju5iep9NoEn8bxc7cQcqN0yRQfblbjeY5thi48/igSH0R9bpWHvWjuouHgKajdtgouz8un0WCO0PB4IL/Oa6CenM3jVqhjOceVN/3B+0uCMCMjSbSBKdSegTdkH3O+mGx/dE4PC5uPYHk1I67Z/d3ggAsvm3ID09zbot7MBf++dzXmSsQsPqFyggsUiMH6tk0guckYx+yZmavFvcpK3GcrGzqHJxkKIO5uF15VHSKvvGqzdOIALn6/g+OWvQ2gNIStur8RE361UZnYlkZGzJF2zkiDgsgCOtVzEUzSetpefYn8t5iWz9dNIyuVxGr5JABeOV2LlhQ1wxSELRiwMwf3iT/BZKIPrrAOoQ0AaCN7TB8vIu+R1/1no/bEX5+yfjXt1DLF6hTI8X1JOg+4oQ69ZMaTfUoAcsed06QspcmMtLz77NQsf9GmCWG8geByIoAnlmvRhkiyK7LgFu+eH4iKN28Rm/1q40lZFXNTMQc7ZEcVPu0BwvSHxOCiBldsHoK7VpuF733TuZHQk3hTsoTfjnuNArijsrxDF85ZjmMbRAbvUOeDK1wtpxvxcgZXijO5VHew5mAzT407hKGcZGdJuI4s/bYTwPF+cWCSBLqLJVK88HFe/nKKzT76p5y+XRgc+bXw30kT+k43Gu2dMuXk/U8gOse9kwqCSKu7TYyunL4TVNnuZnTHRpPJZFfJ5OWHlp9MNm1ME0LydH+crLGdKFv2Gt1OSwF2rjkOr3fE7z2/SLl8Fz3WbyUDzYeYF6w215CisWXYGPW9mk3lLt8Ohi2PQLdlMDC2vk4dGHeywaRwU511idzfepbJ8T9mlGe2g9/Ed+Z2uTnVeFoDtgWfs4/KzZLyvCHhWphOeJmka8v44x0DNjU5Zx8Cq95LwRVQNnG5O45xdnwm+G+RRql8HTI79ZH6vvgNmfhWYa15Np6t5MjyPeThXUxMh3mMH7FL4Cw/ta8j3GRdwiflVIsWXQr88fkKv7T9D09uG2P79Wei8SQp+ro2CW40fsCuqheRETMM1hpY4FPeImEp7Iab7kAJXATgZuRoSAi8QHgVxlNRcSXd31oPb+xlksnWEaZAzoBU2o2RVvyC3U0uCk+ynCUpPb0FuPR+VVduP39ZUwKx9EzBvZANWLMmGFawJvnHpgrk+HZiVQUmtTgYmWG8jCksT8MzHEHgr0s3M/GPN6P9jDN3lMShuK0KknsgxzTaC3PuxgmgzMxzvxTYTEWURGMififNk7Gnxigry1kCSMZyYZNqfRIOp+yJcbrac7LMWxMlMDa7j+z6YMy2LXK8JhZyEOdg03Io+myzJyoXG+CqthcZ/sIFv2eZwWSkWpmqnaMjjUOb4dBXIcBtG4a5/fTfaR72sS0wfGQthRpA6Cr3gUJnEAarTuALKTqbhtANGbFSyB/z3g4+78Pl9fG70GhXvhqP3V1toymhAl6rH9E7vWTB+zcO5LZ9Cz5w+jlKJ8dgzz5o2wGoI+ji03KCwARWii1Hb7SeR3K2N5mFnkI6mMWe14iHbuRoqfBXR1PsRzt9kAmey1+LbwCFQ+c5jqtmUCV+EBtg7ChRK3FTxSq4bbLopxGk2uMFoad0nNOs++azICz5LKvD1s92k0sUCzXvK4PIqWcjtulv//WIVxGbHwEejFZDE/5bU6VpC25kgUBt0wZRHiyBW7A9tLD0FV7x0oTd4BPVUD8G7+KXA/jgHe+1b6b1iMc6hP69M1P7KcL79+UYNTtXRgrRI2jgZwoit+wvn7nNALjsViz7fg5j7E2Rmlj0TuWOEfnbUwMy1ejA0okOjNplDB+tLrfMDSUCoMB4rK4SYq1lMaWwLbf5VBO9Ci7D8shCyWaJULlMHVUKdMcZdjQ52m8G+ADt8v12OeNedphV6vNxF7RfB9Wgm2WSRAQ8q/g3noWQk+VLcwDeeyNHgIdvbRuGo4QHUsrNiihUZyPIqpaEbb1D5ew3s6cWtNKtEGSW1pUj5wBVYVdhHWhZ9Rd7q67jzxFdiLR5K9WReUl39k7hFvJua5M6FzYNdtLDzr6lw6XZckPKbnvdzwOZUftK2zZiJFTiIu99vxsLgS6bb6gZhtaIsnf73BpUgT2jv7LsQ3ijA5U3c0JC85w3tFHyH511t6J4QEcbBrpQeN9oKgZ9S2RcGgXCkazXRsnZHFYsIIrPlHdF9bsxO29cBm2umSEJpB1Hz+cOaFYfBC4dlbNCipXgz+xYz5+8iZvMrNTLgehwftxyik//OuujQB3bWnla6tnYm+Jwuh6guFe5G/lwcihlCD91RkM93pEc0xqmNIqBeuzmsGykjiZkZGFX3ljAVG9HOUxmuGzvA09B3WK10Gx4G7IRWow4Qe2KHt33F4Gu/K95K4sW9j1jq2BMJ674/gJc28tToYTV2V8zG37t5sHz7MdjR3QRj5VdoTdVz03IeeUZnujK87W1mjoiIweYF0biy+BTJ0dEkdXsZyJgpA6t/83KzrYyxIa+YKsYK0jWrbMgRlRUQ77AbH245BiebHkCyaTJs/KyDzn58MLPlIuz69Rnby38T3tW7YFdVM4qU3qVz2jVBciIK765Xh+YrwuD9Rol+442npkwy65rSQAqOx9FmWko8PddizjxlMHglggErF+A5Qx9G1bwV13TfpO2375K9eyg5bCbIqTYvwfCxZqzbeIdmbFKHF2/P00O1LHKE8yB4ozZyHzPsveUaYMsuJFX27tjB30D9Xi0m0grZ9M0mPXDrUoOPs3ngqb8T/Dp6n03iryH3BOZiXmAeLBi5i9uWR8HMYyF0usxesLSLI98CLLFzyUO6JGAQj6qaQsvmN1R/PACrPbVhx+wv9FjNObzB44DKK7sb0u1KIONHP9U5tx3uGzw15YmfIJ+CItE6pJjkcaXAJSQK/ugwnOPCl8m9Lwq0kT1Ec5dqYRbfYsiMLKUxd9aRg1Xz4anfmn+2qoD0WcWR0KAeopF5GVwLLYiVpTgIjlyE2PVS4PeN4M+kG7RvpzJHPysasrs2wZKiSZK+meGqm6ThbhUXOB8QR2Nn8iC3KYd14suCjAcrQDtpAGTmy6GIVDp7e9M0mGd4CXyDLNFwqR2Mh480ZAir0/OtW1BbxAZ0kmQ4m3htUTGpECbkGFjt4wL3n62Fn32zYJd7Di2S5SELsgU5e2IH6PRia7BUqIGiRT1ktclOnDZRhgKX9NDi73SwX3YIPm+LpXWj51Fj2SS9vHMBuXwzBAQNP1AXE3PsXh6I/sO5MDNyBsdsTgasHPSFWL4ytsB/E+ge1cL/vs3A0k5bWHncDARvvScOQj3kSZUkVKMoCohrcwTtdkDTyitkbPoZqN8ig3dtqvH2468gLH+ZbDiUBirRAmz51DpY47OaDbV/hNWL8/ByjB1t4eGBPHE1jqS8D920KAGHDA1wn7QhmoXMR90efaTf3qGY+C3Cf9UQZyUps7Fmt8gc5d+wy/cqeVq7AVRqMuA3nynZdPAjTsWNQP+NReRziSHqhZ0mTEAmJqp14tcVAoB+BDXcE2nztTlgvGE5rX/yifV0q8OR3rfgUrwXrDqMcWZbNK5oy8aiZ0IQn7cYN3oJcaM0r5HyJ0Fkw5ZmUhMQDX3+0znvmn5TNrAQjMr66ZWlS/BXhxH05bSZVv6ciUyQHNm24k3D49pE7DwaSpf4LoTUOAuqofmBunXxwARMUINfKrBkpz+Y1Xyi+hGuMKcki3ibncKo2iCMPRqB9x1CcVCoiujJm0J8fBNh/FTBO54LZgd9UEhVHb1iHpC2/jEi4aZCs3bGkxrFU9D+djfTEPKGnYwOw6krt7H3qCxV7exknBUK2Ku/deFY2TIu77wf5GziJKQ4Hifzmg3RmPsWH6o40oALaWyPfwSadbIoO/CaMbrOkPpFPFDdthKTJXZiy6UIfPpOkuOUYgTz3C5TKdG9UMOTieMOanTXjmsgE5oGBj5t9MO2HpiWbIWrVafBOx0fyGQF6XFFDfy0PpJd8/wjjfh8iUocO0cPPSsktmnxZOMfJWJ59huRkkiArlmRKEkYdH1TTcpnOTM/htUxb0MOpLyMordCEmBSu48ciionUYYxrPVhWY7IrH0gmswDC/ZfJ3PPaZMzeQMwan+R3JWpoINkglwKvIMbcAGTNh4PBb9yYP3rzZAH07mRXu04sjaetiUfxtvDsrBrnz9hahUJ//qTjNgMMQi9VEIF+nqwKWg/Wg7eoOEa7+iYSQQdV0wkCdz36HxwOSw8GE0rTRuwWNwDrVYKwYSSKTJ6pdhXFI45M9Ww/edSUHpRg50bU6m0XQYc3WwBgTXCRPuwE2pP2tK8/A34tHWAJM2WIWNzRKia8TJu3KvzZCQoC+VO1NIIgx7W8JMyyByygbHuBsharAgzJgbZ/nOXUcw5HjoEjND9yU98ftwVqd0anPPYHet3XCALIvbDzmvvCW8J11RkdRuYLHuF2RYhuD14IeILRRT40EKGed+Q7h1SRH+XCs5wuYBC99L/sa8jyL4YYg+It7A7FXLo8UtL4O3mHjj82Ig2+bSRZ4tuEb9LDC0aX46rmoyI6oZpsPhEFCRyi5DljQSxRBGOioUkWhZcBYNjb6Ffxgzjgp3oYjc/2CY/C8wd/UFA5CsIhYaCT+pimhA9DNC3EBbvOt9wXiCe5BaKgKTeWTAdzsPcX43I49oDF8vfg3b6A/BfxYPyk9O55QpXKfaZkH28WnBW7hEzTdIF4l4W0Lb3KdhvLkf0IxPx6j+v7cU7DZ7H+ePGy3fJoiM6nLbd/2aJGj8c65BChTWa+HObBpezooRuHdqI7f/Y0zwwDGJ0Bkl/w3ni0J8HlY+1aPlGK67osClpuJOOQ/mObJvrOjRNTIFh51G29ugK+p+/MTWoiMCvaExykuJhtdVF1Pu7DW4X34JSt0lqsSSK8NVmgfi2z+Rjpz6IXIkmS0u1cWeHFtiXDWLIox1YscwOwlh1Jl5PA3Nj7hCz53pMUp0Kt+m0DVRkFGP6Y15yppBL5jy6YPqONJJFsrZk34GrYFsfiocnymHZDD84GyzPyUtJpDwavJzCkL3oKcmD4389wT5JD1JnzYTjPXLoZe6BCowJ9e6sIhEpXXh9bQAWXDiGMfqL2bx3/tDtk2+68IMwLmuVxIqhFTT/tR8YudSbppYLQs89AeCtPA3SR5ohdMEqKPDj4Kt9w7h90Vq8aqWMPF9k6cSzn2iUM5ObJHCNuP0SAMvvlUCr02BZNR9YzuHDB0o7oL9gOmiljyFzbzYdNqoBd+0cmnTYlvq2S3OME8/geN58VOlYAQcFeTl+rSaM+M1gcoI/Hq7ujoKNjXvhv8tB6OxpBxswEUWtboKPUCG1/fWHZi/UAPHAwyh/RwKeHz+MXs9bTZadmAG+Dfl4wpqDB67NpnPrRUDonhN9blmFY57XID5zDVk0140c8UpDwV4TFPzWBkHborH6hDIcLtmDu+T9sefDAdajgx+nbiw3abNsokt/PsLiyQPIF3oHctZakbeBl5hbP5aCYtMH7N59ApaYz+V8fHQdvnBvwM/uLagbnkRe3XJj//DpsslnZ6KmcgHlSzyADfFiOKdtooEaCOMm6yfUCsLpvsfjKL4sEC36uKCnV46WPilsVHErinhtgLd7CWZO3Ea29AixXPKZOWt+yzR590ms903DYvnrTNPsjfDHqZYWuSgT9p084Vn+hj7PF8BxSy8YevbvHaankJh/up+cUNeQ8n0jCSz/SkRdh+k9o3zmt7EfCIivo688HJiMxHKQ6vJkrQdmou+GteyeqSl6RzoSrmarcypunWKuDd+nc9S1acUXVzB7cgWm/ZxDZLaLYZ/4d3pmvzjnpO4U8ufrEZ1nG7GoeRp0ekaRQCk1yP1Xz5fEjqOf1XlsZx2waVYkbb0eQtd4VmPhjyJIfy0AWv9lwFLdDHRvaWCzwREmEnOYxiINCKtcg8qxSjSyayXYTDqy6uwZPDB7Cao7iDLigym0Zm49/D2WRkxu7IblnHnMbhVNsH40CNr6EtiwTZ6uNeqGHXvTsNc8n/55eB4vRReQY/XSYNjuCVq3z4OGwyno69yC3Wlt//wxH4YfjcR1nwXorpwQ4qTiBjpPrGCpgznuadiIGdEnwe2CD3q4drDCswRRbEUWeAZcB9Xm09jsHg+vZi2C8NLjcAv7iNhHYc6xldew/vplrDKxg8OJQ3QRxw5+f+PjcL0MoNI3CHwSY2jvKh1Ov6EdXSo93TREyhBiS8rRW6oVRqN9SIL6HEhaIAj1F6pJbG44fHk5iIdE38LcgzHw830uAdUcvLplFygci8WKyVtweGsJPd4VjYbrVeHVw3rsbAmFQP+7/3QkB7o6XLHG4DRzMcCTNj3oxQftbWCVf4bMU06HvadW43PLNLi2wATvyGRSzdBwHH3kSK/aL0GDQ18JT78STHlPYZuSFWaUJVDZbzUQIJZF7qlI489wXs6f0Ra8VfKCBnDtwbC8kn6dD2CzpY3siuaBzOFkKHDhYpHtV9p32hG/D6QR950MfdNbxN5bLMs8/27I+Dw6RS4t7YXpf6RQhU8RFUSPo+XwdbpVP4h66a6CZM9IMnzyAXrY11GXG1koIi0M1SNZVLY/FBx8EEK370XZqNN4fc9C5iCfKkmacYdsmPMaxu7NwM3yYZjdG0o73ymQW+NJ4HtnN5lQdsZFzW5s1/lKGJ8IpZdXyxHx1iR4l/+KDDr1wwEXa6g4vQp6L93C+slz9P6gBdj7vqGbwArt7U8hc1+VO2/hdPBd+5m+eOGCS7Sew7NIH/I7Ix73eV2iP65VmQ7yr0aZef1wcEczbXj7mnbeuc4Wmp1h+fQG6JoFv7CoswLlE13J0LFCMEg1IRaKldh94g5tv9FGuNLK3JEsczw9yos5HV5MvWQ74R+TR1tbHq6kwyq4VN1HahVHoGDWJuZxQxdbHH6f9f2Wy6xfocDhz7QG7SItdH5xHGNniIPloYsw5REOJvtlwWaJFRXzVIeefC3gqVYG5fB+tvSlLXAWLiL2KzJIpKYRnivZgCIneLFobgI2Ot4gaxw7sdNHjpkvuh6PGimgUnsCGUR+YmFtxcT9XEcme0+AqfRSbPpuBPfdpWH+kDQ9e2YIeM66wyuzg2gzLwj4h4W4Xqon6YHVf0xHlxmA4MbL9avOFrJHLqRC4q7zKJvLw9m8MgJCk+NZxbgpdCwswTNh5Xivd4zsGR8l25SDwXcyEcX5Q4FnMJq+CBmCbFdV2CK7DOZVzsCcsylkf0wlXXVHDBcHviAFZUupcN1OSNZ4Rj6e0QLvnEHY0FKNEpUmmO0xmzni/5qu4JPAyMOGILHuP8yYVgll2l2oNTkPJ4+1o7/6IPZvvgk/h+8Tp99RbGUPH+indkMiR4Cz+vQ9qvt6iIqZzcVfTT7oqxhGJx9Iw8G3YhjgloTvp9XC7RlnIWSaAnV/Z0X2d7aaxq0NwVlrGXSaJwbdhl1sztEizHrQxYTOXYHtspfwy8cCU9fyStj3rRiv/F1Gs962QSP/IDM9dDoa/NgIK/XsqcQtO7SfmofV94XBkuuMMZ8XEPkFSaZTB5xBfYMqXBPXAH9VBj5mtjNb9qXSE955uHu1IPm8Zj/OtfnBSIZdMs04dZJCvyk4r5RFwxYvNGtUgTG3EaJYawu/7lRg1lFhzuKl1Yy/9T6SeY4HmkRF8SeJg2PqERDbyoH9sZlQL9CMG853oXfKAew0iIFsH3nCj8VwZjAGj/BPw4nCW8zC6ZY4avAT6zL3gYFOOWk6so4qhk2Ds6IsFbYvIP2WsuTd93pmXWwanm25gDxOvaAX8Yfu+VCHE3qKINwcR3tyH/zf7ABQSwMEFAAAAAgAAAAhAAQXifVTAQAAgAEAABEAFABwb2xpY3kuMS5iaWFzLm5weQEAEACAAQAAAAAAAFMBAAAAAAAAm+wX6hsQychQxlCtnpJanFykbqWgbpNmoq6joJ6WX1RSlJgXn1+UkgoSd0vMKU4FihdnJBakAvkaZiY6mjoKtQrkAy5P6bS9ZzJDba80CO+dm6K8u2tnpe2epd/3SrGK7rHdILR3jdWbvVO6w/dW+jHujbFU36N2pmrP1o3Btjb7g3c+uPXWdl1P+l7ui5m75y/4s9uxTGDv/irz3bw37u7dtjVoT3F31Z6O33W2P4322TLOP7p7nuKRvd28S/am8rHtUV8ubftk3x1rRYHfeyX9W/dqXPu3h2WP5O6EnGU2VfGTbK7fr7B1SgvY63Dg6F7NuQJ7J7RH7tk2QXlvSpSe1eN9R613FtXYHv3RZLvK6r91QZvB3nKZFbZOW7Rs084V7k3OtdnTvnKvbY/bfesPlco21R9cdouFWtu4GkrYfj2WuKddpmMvp1jrHiPOgL0AUEsDBBQAAAAIAAAAIQDh99+Y+gYAAIAHAAARABQAYWN0aW9uLndlaWdodC5ucHkBABAAgAcAAAAAAAD6BgAAAAAAAJ2T+1/M+R7HKypRuiBdJkakJuWSTq1p3u9hLDlUlopa0ukyCZEdKSts1ElTVJpdpkkXVhdtLbWF9P28B7m2RUmrpbDoREnsmdTSZZ1/4Tx/ez1/fT2eCh9/768CtbViteLtw6W7wmT2Qr69KMLV3olvHxEti5GF7AiOloVL/+eXh0Ttkn72uyJDdko/bwd3J76bq8CJv5///zI+znE+WQR/I/L/xh6sTndDVtxm0rJVYp/dBGyw0SapZSBN7S/Hep92mEXGGGd7t7bO9xDVeOtRdaWCftO9y15bnQSTywKKynehKQa/QG7iQYhXObJKj3+gYoRPvbzjXPNrJV0zimOvxh3FdUJTtlTIo8ONerQ8r4A5HV/BJUmE2K2fD82LBRS+M4s5/HmcQoP/KxInpOC1MH8aTZvLDF9XQPpVoCJ4gAYOSpo7UUlVqlI2pVyLjb/YROu/eklnZi7CWO/ZrMtYxcigD2Jd95BXWSvrNhzi5hqk0fkznij/+RglrgvDQHUlDlRMhsoYB9ap0CH13lgqueKAkpfHmVfyKbZzMIHcv66im7bN3EO5OdyxUTGeypSs9WU0Lv53NlRbB7fbikBo746L0YZiSjbCjB916LZbJrd9t5No/vU62OjpjDW69dz7VjW9eGiGq6JU2BvzBHT7ukW85rdwr3Qhh+IMCK455dG5a4JwypIQmpH3is3iv7+04KQtfswB0K2OgUK9DTCS4AphAgUNWeRgs4sORUaVw+2jGlj/EdhZezPUHFiKMx/tBevDq1nW2TKRc5qchfxpxM64pFG6XxtcDN1ER5Z8wbxWnqB00wci/o1FVHD1PE6TaONYu73M3G0VlVYLRGXrk0TdZIAdL9NIe2sps+hZzcztdtLygRO0KVqCcZ9+r62Q12OfSM6KtOToa2dFGZK3LDw3Fa3bluGaJ3zkao7ShfinXFhuFaklPGo6lI0Pa1axx93lojS9VOxbFI2t9+NoZMUHzrCpDcIlUrbv9GxMlTiI2zW2LMcnlq7zGA1HcNjys5J5e/fi2VgDJugKosvCUtr6Jpgs+50o1XkmLByOAIOLYnIrJBiebU4yRRHLUFRiwYp3bIdXLGgCU9myL6tpaIDHDjedYTHWh6BHaYWXnr4F+Z1Z+CxUirrpE7HdIp+uhF0AaZcJa9AbZculC1GRs521TXjEnp9KIN22bMw52sNk8ybi7sQ50JycDK8HTcT11iOY2QrowpPSrayp4hU2d9iWFGP0OlPKQrclY2zUBPXxI1kg5HIZn22ixjGPUDrsh7GrbLCk/hLc37qRvmgtY/62B4i32RX0vU3VayebYo9lEjUs8KC0u0XQndyHnzSTKGa4BXR+7OKUOUtQP8caqgeLIddsCGf+VQhF74yhs7iK1TNX5GXLQPYogasX2uKb901k8d4QTbZMw65IR4rWDUDPwlcsTLeDRQvCaEZsEEXs7QPb773QJ9mPczFcClUrnfCp91iUzM9BibmAbrvfxKVrgO2+VYfcpkYYN1hFaUEOtNTy30x+LgBvBvZT5fQCMnk2yO21f4IWvMPgZV4gil8VjGs7U6FDvIgr+OevtGDQC+0C3Ck/3hz+k7gGVUkpmJQcSeFSJfNwCaGnDjoYGnUengensCey59g4oRAq536HRkamVOHJpxnhVXB6VzezuTHKbVU0cm/qXSkvs110/Xo6WFZdZp2DkSTc+iV9qLhHbTdMxGYNJ2lUOwiVn1sMiGzgFjBfKhk4yB3bdA/n7FsNe/JsseEpj4r5Agwwa4ITLUG43vcKc3syn5xtNOCsLMcOu1OgXX6r9t6+g2iZJqFpLv1wdXoZbu7TwYziUhItN1Hf9dURa1oW4vxJrdTeH0z3PZeh37kllG9vAHaNIuyNW4PiiYgDH4KIttVRemIXV53vSM41j9kffEt0i6tkL9S9cPBjOWmPzccK3ZU4bs8dULVLaEpFB9fjUEctBYzz7yzAy8aG9C+RB57f4o8/PTqGyuECMvteDyerHsO3i5PZPPMfMHjMUSaoNVL7GhzAZVuUOPfrAHzjnIMek1pgd+AetLpaRzsCBGR0v49ebKiHfe766pfu5/AyDNK30bzaDZo8WKHRwnk/WLFu1RpI8RthUy9oq0sUh2tbznWIOg4E0px0K/ytxp963wbSWr+bEFN2CKdWZjDHzDhigcXUqT0Gk549o43p11DPKgUy3SPwiK2STKYbk+W6i7RtJIXtd5BSpTwQ3+qH4dWzhzCj0BD/ck9CkSYZQpekkNBjOnk1rqYH2XK6tf/zF4MykXLDeDhxwAaz56WzC+IOar/4gOW9yWM9PtuZx63b+CnsGP1qmop52XNwZ6KSa94WhY/f/UHf3bfiXmQdwyMvY5iFzSjzS3DDvwFQSwMEFAAAAAgAAAAhAD/lSxFhAAAAnAAAAA8AFABhY3Rpb24uYmlhcy5ucHkBABAAnAAAAAAAAABhAAAAAAAAAJvsF+obEMnIUMZQrZ6SWpxcpG6loG6TZqKuo6Cell9UUpSYF59flJIKEndLzClOBYoXZyQWpAL5GuY6mjoKtQoUAK6KHcL7QjI+2fi9fbb3H5OSLYuW5W6xT2tt/crTbQBQSwMEFAAAAAgAAAAhAOB/HgjNAAAAUAIAAAwAFABfX21ldGFfXy5ucHkBABAAUAIAAAAAAADNAAAAAAAAAJ2QsQrCMBCG4+pTBJcoZKmDQ3F2U1w6iEipbUrF2pakFkrpU/jCXuAXQmgXAx/k7r//7pLPKTqeLwvWsUFkyqRahFzsoyDYCclFXutWJ1Vc60xZ5ZCURlHeFEmjKF4HciP5yP8+y4ExtiKexIOoiAy5kOC4N6BGLB0tJxSREC3xJjRyMXrbe08Yr/cVsfWm8D8wp4L/Bd2glz/f1t6hK8zunH3cfrb+5vn92XPeud1b1NuaYmK/Kd3foXT+//eXGu8vEffO+/xdtsRIfAFQSwECFAMUAAAACAAAACEAZ2a+E71UAACAWwAAEwAAAAAAAAAAAAAAgAEAAAAAcG9saWN5LjAud2VpZ2h0Lm5weVBLAQIUAxQAAAAIAAAAIQDvnkdtVQEAAIABAAARAAAAAAAAAAAAAACAAQJVAABwb2xpY3kuMC5iaWFzLm5weVBLAQIUAxQAAAAIAAAAIQDxuhJiojsAAIBAAAATAAAAAAAAAAAAAACAAZpWAABwb2xpY3kuMS53ZWlnaHQubnB5UEsBAhQDFAAAAAgAAAAhAAQXifVTAQAAgAEAABEAAAAAAAAAAAAAAIABgZIAAHBvbGljeS4xLmJpYXMubnB5UEsBAhQDFAAAAAgAAAAhAOH335j6BgAAgAcAABEAAAAAAAAAAAAAAIABF5QAAGFjdGlvbi53ZWlnaHQubnB5UEsBAhQDFAAAAAgAAAAhAD/lSxFhAAAAnAAAAA8AAAAAAAAAAAAAAIABVJsAAGFjdGlvbi5iaWFzLm5weVBLAQIUAxQAAAAIAAAAIQDgfx4IzQAAAFACAAAMAAAAAAAAAAAAAACAAfabAABfX21ldGFfXy5ucHlQSwUGAAAAAAcABwC2AQAAAZ0AAAAA"
PARAMS = None
META = None


def _cfg(config):
    if isinstance(config, dict):
        return {
            "rows": int(config.get("rows", 6)),
            "columns": int(config.get("columns", 7)),
            "inarow": int(config.get("inarow", 4)),
        }
    return {
        "rows": int(getattr(config, "rows", 6)),
        "columns": int(getattr(config, "columns", 7)),
        "inarow": int(getattr(config, "inarow", 4)),
    }


def _load():
    global PARAMS, META
    if PARAMS is None:
        data = np.load(io.BytesIO(base64.b64decode(WEIGHTS_B64.encode("ascii"))), allow_pickle=False)
        PARAMS = {key: data[key] for key in data.files if key != "__meta__"}
        META = json.loads(str(data["__meta__"][0]))
    return PARAMS


def _obs_board_mark(obs):
    if isinstance(obs, dict):
        return [int(x) for x in obs["board"]], int(obs["mark"])
    return [int(x) for x in obs.board], int(obs.mark)


def _opp(mark):
    return 2 if mark == 1 else 1


def _mask(board, rows, columns):
    return np.asarray([board[col] == 0 for col in range(columns)], dtype=bool)


def _drop(board, action, mark, rows, columns):
    new = list(board)
    for row in range(rows - 1, -1, -1):
        idx = row * columns + action
        if new[idx] == 0:
            new[idx] = mark
            return new
    return new


def _winner(board, mark, rows, columns, inarow):
    for row in range(rows):
        for col in range(columns):
            if board[row * columns + col] != mark:
                continue
            for dr, dc in ((0, 1), (1, 0), (1, 1), (1, -1)):
                end_row = row + (inarow - 1) * dr
                end_col = col + (inarow - 1) * dc
                if end_row < 0 or end_row >= rows or end_col < 0 or end_col >= columns:
                    continue
                if all(board[(row + k * dr) * columns + col + k * dc] == mark for k in range(inarow)):
                    return True
    return False


def _tactical(board, mark, rows, columns, inarow):
    legal = [a for a, valid in enumerate(_mask(board, rows, columns)) if valid]
    for action in legal:
        if _winner(_drop(board, action, mark, rows, columns), mark, rows, columns, inarow):
            return action
    other = _opp(mark)
    for action in legal:
        if _winner(_drop(board, action, other, rows, columns), other, rows, columns, inarow):
            return action
    return None


def _encode(board, mark, rows, columns):
    arr = np.asarray(board, dtype=np.int8).reshape(rows, columns)
    other = _opp(mark)
    return np.stack([(arr == mark).astype(np.float32), (arr == other).astype(np.float32)], axis=0)


def _features(board, mark, rows, columns):
    _load()
    mask = _mask(board, rows, columns).astype(np.float32)
    encoded = _encode(board, mark, rows, columns)
    parts = []
    for key in META["feature_keys"]:
        if key == "observation":
            parts.append(encoded.reshape(-1))
        elif key == "action_mask":
            parts.append(mask.reshape(-1))
    return np.concatenate(parts).astype(np.float32), mask.astype(bool)


def _forward(features):
    p = _load()
    x = features
    for idx in range(int(META["linear_layers"])):
        x = p["policy.%d.weight" % idx].dot(x) + p["policy.%d.bias" % idx]
        if idx < len(META["activations"]):
            act = META["activations"][idx]
            if act == "tanh":
                x = np.tanh(x)
            elif act == "relu":
                x = np.maximum(x, 0)
    return p["action.weight"].dot(x) + p["action.bias"]


def agent(observation, configuration):
    cfg = _cfg(configuration)
    rows, columns, inarow = cfg["rows"], cfg["columns"], cfg["inarow"]
    board, mark = _obs_board_mark(observation)
    action = _tactical(board, mark, rows, columns, inarow)
    if action is not None:
        return int(action)
    features, mask = _features(board, mark, rows, columns)
    logits = _forward(features)
    logits = logits.astype(np.float64)
    logits[~mask] = -1e30
    if not mask.any():
        return 0
    return int(np.argmax(logits))
